{
  "version": "1.0",
  "truncation": null,
  "padding": null,
  "added_tokens": [
    {
      "id": 0,
      "content": "[PAD]",
      "single_word": false,
      "lstrip": false,
      "rstrip": false,
      "normalized": false,
      "special": true
    },
    {
      "id": 1,
      "content": "[UNK]",
      "single_word": false,
      "lstrip": false,
      "rstrip": false,
      "normalized": false,
      "special": true
    },
    {
      "id": 2,
      "content": "[CLS]",
      "single_word": false,
      "lstrip": false,
      "rstrip": false,
      "normalized": false,
      "special": true
    },
    {
      "id": 3,
      "content": "[SEP]",
      "single_word": false,
      "lstrip": false,
      "rstrip": false,
      "normalized": false,
      "special": true
    },
    {
      "id": 4,
      "content": "[MASK]",
      "single_word": false,
      "lstrip": false,
      "rstrip": false,
      "normalized": false,
      "special": true
    }
  ],
  "normalizer": {
    "type": "Sequence",
    "normalizers": [
      {
        "type": "NFD"
      },
      {
        "type": "Lowercase"
      },
      {
        "type": "StripAccents"
      }
    ]
  },
  "pre_tokenizer": {
    "type": "Sequence",
    "pretokenizers": [
      {
        "type": "WhitespaceSplit"
      },
      {
        "type": "Punctuation",
        "behavior": "Isolated"
      }
    ]
  },
  "post_processor": {
    "type": "TemplateProcessing",
    "single": [
      {
        "SpecialToken": {
          "id": "[CLS]",
          "type_id": 0
        }
      },
      {
        "Sequence": {
          "id": "A",
          "type_id": 0
        }
      },
      {
        "SpecialToken": {
          "id": "[SEP]",
          "type_id": 0
        }
      }
    ],
    "pair": [
      {
        "SpecialToken": {
          "id": "[CLS]",
          "type_id": 0
        }
      },
      {
        "Sequence": {
          "id": "A",
          "type_id": 0
        }
      },
      {
        "SpecialToken": {
          "id": "[SEP]",
          "type_id": 0
        }
      },
      {
        "Sequence": {
          "id": "B",
          "type_id": 0
        }
      },
      {
        "SpecialToken": {
          "id": "[SEP]",
          "type_id": 0
        }
      }
    ],
    "special_tokens": {
      "[CLS]": {
        "id": "[CLS]",
        "ids": [
          0
        ],
        "tokens": [
          "[CLS]"
        ]
      },
      "[SEP]": {
        "id": "[SEP]",
        "ids": [
          1
        ],
        "tokens": [
          "[SEP]"
        ]
      }
    }
  },
  "decoder": {
    "type": "WordPiece",
    "prefix": "##",
    "cleanup": true
  },
  "model": {
    "type": "WordPiece",
    "unk_token": "[UNK]",
    "continuing_subword_prefix": "##",
    "max_input_chars_per_word": 100,
    "vocab": {
      "[PAD]": 0,
      "[UNK]": 1,
      "[CLS]": 2,
      "[SEP]": 3,
      "[MASK]": 4,
      "0": 5,
      "9": 6,
      "a": 7,
      "b": 8,
      "c": 9,
      "d": 10,
      "e": 11,
      "f": 12,
      "g": 13,
      "h": 14,
      "i": 15,
      "j": 16,
      "k": 17,
      "l": 18,
      "m": 19,
      "n": 20,
      "o": 21,
      "p": 22,
      "q": 23,
      "r": 24,
      "s": 25,
      "t": 26,
      "u": 27,
      "v": 28,
      "w": 29,
      "x": 30,
      "y": 31,
      "z": 32,
      "–": 33,
      "##l": 34,
      "##i": 35,
      "##c": 36,
      "##h": 37,
      "##e": 38,
      "##o": 39,
      "##d": 40,
      "##b": 41,
      "##y": 42,
      "##r": 43,
      "##a": 44,
      "##f": 45,
      "##w": 46,
      "##n": 47,
      "##g": 48,
      "##u": 49,
      "##s": 50,
      "##p": 51,
      "##v": 52,
      "##t": 53,
      "##m": 54,
      "##x": 55,
      "##k": 56,
      "##z": 57,
      "##q": 58,
      "##j": 59,
      "##0": 60,
      "##9": 61,
      "th": 62,
      "##in": 63,
      "##er": 64,
      "##ing": 65,
      "an": 66,
      "to": 67,
      "##on": 68,
      "##en": 69,
      "##at": 70,
      "##or": 71,
      "##ou": 72,
      "and": 73,
      "the": 74,
      "##ed": 75,
      "##an": 76,
      "##st": 77,
      "##ll": 78,
      "my": 79,
      "##el": 80,
      "##th": 81,
      "##ea": 82,
      "ha": 83,
      "be": 84,
      "it": 85,
      "##ut": 86,
      "##om": 87,
      "##re": 88,
      "##ve": 89,
      "in": 90,
      "##is": 91,
      "of": 92,
      "##ow": 93,
      "##le": 94,
      "me": 95,
      "li": 96,
      "##ay": 97,
      "wh": 98,
      "##et": 99,
      "##ot": 100,
      "that": 101,
      "##ke": 102,
      "##ss": 103,
      "##ver": 104,
      "##se": 105,
      "##ic": 106,
      "##ar": 107,
      "on": 108,
      "st": 109,
      "for": 110,
      "wi": 111,
      "is": 112,
      "##gh": 113,
      "##it": 114,
      "but": 115,
      "##ion": 116,
      "##id": 117,
      "##ly": 118,
      "so": 119,
      "##ust": 120,
      "##ent": 121,
      "have": 122,
      "wa": 123,
      "do": 124,
      "fe": 125,
      "##ld": 126,
      "##al": 127,
      "this": 128,
      "just": 129,
      "##ep": 130,
      "##ch": 131,
      "with": 132,
      "feel": 133,
      "##me": 134,
      "##ant": 135,
      "##lly": 136,
      "##ri": 137,
      "##ome": 138,
      "sh": 139,
      "go": 140,
      "##one": 141,
      "you": 142,
      "##ck": 143,
      "any": 144,
      "##op": 145,
      "like": 146,
      "not": 147,
      "don": 148,
      "##ght": 149,
      "##ere": 150,
      "can": 151,
      "##ce": 152,
      "wor": 153,
      "ab": 154,
      "at": 155,
      "rea": 156,
      "##ear": 157,
      "ne": 158,
      "al": 159,
      "##thing": 160,
      "we": 161,
      "##ould": 162,
      "##au": 163,
      "su": 164,
      "##ad": 165,
      "ever": 166,
      "##ir": 167,
      "get": 168,
      "##ct": 169,
      "##out": 170,
      "no": 171,
      "##fe": 172,
      "##ter": 173,
      "want": 174,
      "##ress": 175,
      "some": 176,
      "or": 177,
      "##ore": 178,
      "kn": 179,
      "all": 180,
      "am": 181,
      "##oo": 182,
      "##ime": 183,
      "##pp": 184,
      "##ro": 185,
      "re": 186,
      "##elf": 187,
      "##king": 188,
      "know": 189,
      "##ur": 190,
      "##nd": 191,
      "every": 192,
      "about": 193,
      "##ry": 194,
      "out": 195,
      "##ven": 196,
      "up": 197,
      "##ain": 198,
      "##end": 199,
      "se": 200,
      "bec": 201,
      "##ause": 202,
      "what": 203,
      "##ake": 204,
      "##ight": 205,
      "##ther": 206,
      "##ally": 207,
      "life": 208,
      "if": 209,
      "ve": 210,
      "##xi": 211,
      "##self": 212,
      "dep": 213,
      "time": 214,
      "been": 215,
      "depress": 216,
      "##ge": 217,
      "because": 218,
      "fr": 219,
      "now": 220,
      "they": 221,
      "de": 222,
      "##ate": 223,
      "when": 224,
      "myself": 225,
      "fa": 226,
      "##ill": 227,
      "##od": 228,
      "ex": 229,
      "anxi": 230,
      "even": 231,
      "con": 232,
      "lo": 233,
      "how": 234,
      "##ack": 235,
      "##art": 236,
      "pe": 237,
      "day": 238,
      "thin": 239,
      "he": 240,
      "ch": 241,
      "##ople": 242,
      "people": 243,
      "##ble": 244,
      "had": 245,
      "##ation": 246,
      "##ra": 247,
      "##ety": 248,
      "##riend": 249,
      "really": 250,
      "she": 251,
      "##il": 252,
      "depression": 253,
      "anxiety": 254,
      "##ind": 255,
      "thing": 256,
      "from": 257,
      "one": 258,
      "fu": 259,
      "##way": 260,
      "di": 261,
      "im": 262,
      "##ough": 263,
      "mu": 264,
      "##ely": 265,
      "po": 266,
      "ca": 267,
      "year": 268,
      "##ive": 269,
      "would": 270,
      "##ue": 271,
      "pl": 272,
      "see": 273,
      "her": 274,
      "##ving": 275,
      "com": 276,
      "are": 277,
      "friend": 278,
      "##ast": 279,
      "did": 280,
      "##ong": 281,
      "##im": 282,
      "will": 283,
      "think": 284,
      "un": 285,
      "##ff": 286,
      "there": 287,
      "work": 288,
      "##ead": 289,
      "hel": 290,
      "going": 291,
      "sa": 292,
      "help": 293,
      "them": 294,
      "##and": 295,
      "make": 296,
      "##ting": 297,
      "ag": 298,
      "##ine": 299,
      "##sh": 300,
      "mo": 301,
      "##ul": 302,
      "who": 303,
      "pro": 304,
      "more": 305,
      "too": 306,
      "en": 307,
      "much": 308,
      "happ": 309,
      "never": 310,
      "over": 311,
      "te": 312,
      "back": 313,
      "##son": 314,
      "##ide": 315,
      "##ous": 316,
      "##ap": 317,
      "af": 318,
      "got": 319,
      "sp": 320,
      "being": 321,
      "only": 322,
      "int": 323,
      "co": 324,
      "start": 325,
      "##ought": 326,
      "##day": 327,
      "##un": 328,
      "try": 329,
      "##tt": 330,
      "cl": 331,
      "##ound": 332,
      "per": 333,
      "could": 334,
      "need": 335,
      "tal": 336,
      "##ort": 337,
      "##eal": 338,
      "br": 339,
      "##so": 340,
      "feeling": 341,
      "##sed": 342,
      "##ci": 343,
      "##ish": 344,
      "other": 345,
      "##ie": 346,
      "then": 347,
      "thought": 348,
      "than": 349,
      "jo": 350,
      "##mp": 351,
      "still": 352,
      "bad": 353,
      "tr": 354,
      "good": 355,
      "fuck": 356,
      "ar": 357,
      "bet": 358,
      "##ways": 359,
      "##ath": 360,
      "##ity": 361,
      "##ek": 362,
      "##ily": 363,
      "le": 364,
      "by": 365,
      "doe": 366,
      "way": 367,
      "##ist": 368,
      "##sp": 369,
      "stu": 370,
      "off": 371,
      "##sn": 372,
      "##ip": 373,
      "man": 374,
      "##own": 375,
      "anything": 376,
      "say": 377,
      "always": 378,
      "##ment": 379,
      "##ool": 380,
      "why": 381,
      "end": 382,
      "##our": 383,
      "anyone": 384,
      "##int": 385,
      "##ice": 386,
      "something": 387,
      "everything": 388,
      "after": 389,
      "last": 390,
      "exp": 391,
      "##leep": 392,
      "week": 393,
      "##ick": 394,
      "##ol": 395,
      "thr": 396,
      "ad": 397,
      "better": 398,
      "sch": 399,
      "didn": 400,
      "na": 401,
      "##ig": 402,
      "##more": 403,
      "##us": 404,
      "your": 405,
      "ver": 406,
      "dr": 407,
      "har": 408,
      "anymore": 409,
      "dis": 410,
      "##ade": 411,
      "##mb": 412,
      "also": 413,
      "sc": 414,
      "##ure": 415,
      "mon": 416,
      "##as": 417,
      "sin": 418,
      "##ich": 419,
      "again": 420,
      "here": 421,
      "pre": 422,
      "##ag": 423,
      "ll": 424,
      "long": 425,
      "someone": 426,
      "ke": 427,
      "sleep": 428,
      "##ab": 429,
      "att": 430,
      "take": 431,
      "talk": 432,
      "hate": 433,
      "##ma": 434,
      "job": 435,
      "nothing": 436,
      "tw": 437,
      "##ose": 438,
      "fam": 439,
      "##ried": 440,
      "person": 441,
      "school": 442,
      "since": 443,
      "right": 444,
      "him": 445,
      "into": 446,
      "str": 447,
      "loo": 448,
      "gr": 449,
      "rel": 450,
      "tell": 451,
      "hear": 452,
      "act": 453,
      "ment": 454,
      "##ually": 455,
      "##ile": 456,
      "keep": 457,
      "family": 458,
      "hard": 459,
      "very": 460,
      "month": 461,
      "down": 462,
      "which": 463,
      "as": 464,
      "##ne": 465,
      "lea": 466,
      "doing": 467,
      "##gg": 468,
      "may": 469,
      "##able": 470,
      "real": 471,
      "happen": 472,
      "##ated": 473,
      "well": 474,
      "getting": 475,
      "##aking": 476,
      "##be": 477,
      "through": 478,
      "##fore": 479,
      "lot": 480,
      "qu": 481,
      "##eri": 482,
      "##eak": 483,
      "everyone": 484,
      "##iz": 485,
      "stop": 486,
      "##ody": 487,
      "love": 488,
      "##ning": 489,
      "before": 490,
      "comp": 491,
      "hop": 492,
      "med": 493,
      "having": 494,
      "care": 495,
      "won": 496,
      "##ence": 497,
      "suic": 498,
      "par": 499,
      "should": 500,
      "point": 501,
      "where": 502,
      "##ffer": 503,
      "##ard": 504,
      "mis": 505,
      "trying": 506,
      "night": 507,
      "##am": 508,
      "##ating": 509,
      "##ired": 510,
      "bl": 511,
      "bo": 512,
      "##ass": 513,
      "el": 514,
      "find": 515,
      "wr": 516,
      "id": 517,
      "most": 518,
      "##ful": 519,
      "##der": 520,
      "app": 521,
      "home": 522,
      "ph": 523,
      "pain": 524,
      "##ved": 525,
      "ther": 526,
      "##ite": 527,
      "therap": 528,
      "##ft": 529,
      "cont": 530,
      "doesn": 531,
      "made": 532,
      "fucking": 533,
      "und": 534,
      "shit": 535,
      "started": 536,
      "##age": 537,
      "##mo": 538,
      "live": 539,
      "today": 540,
      "##ently": 541,
      "##ood": 542,
      "tired": 543,
      "fir": 544,
      "were": 545,
      "##elt": 546,
      "wish": 547,
      "sad": 548,
      "around": 549,
      "else": 550,
      "first": 551,
      "mom": 552,
      "##um": 553,
      "##ealth": 554,
      "part": 555,
      "away": 556,
      "few": 557,
      "##ace": 558,
      "##ach": 559,
      "fin": 560,
      "felt": 561,
      "told": 562,
      "##ang": 563,
      "kill": 564,
      "##ever": 565,
      "ac": 566,
      "##ect": 567,
      "under": 568,
      "##orm": 569,
      "hi": 570,
      "new": 571,
      "come": 572,
      "cou": 573,
      "seem": 574,
      "their": 575,
      "same": 576,
      "##mpt": 577,
      "##wn": 578,
      "##ance": 579,
      "dont": 580,
      "hope": 581,
      "##ha": 582,
      "mental": 583,
      "hur": 584,
      "these": 585,
      "said": 586,
      "##ared": 587,
      "bu": 588,
      "health": 589,
      "##reat": 590,
      "die": 591,
      "while": 592,
      "sit": 593,
      "ho": 594,
      "read": 595,
      "rec": 596,
      "parent": 597,
      "maybe": 598,
      "tried": 599,
      "alone": 600,
      "##iv": 601,
      "##est": 602,
      "##ship": 603,
      "happy": 604,
      "##stant": 605,
      "head": 606,
      "##sing": 607,
      "##xt": 608,
      "call": 609,
      "though": 610,
      "went": 611,
      "many": 612,
      "aw": 613,
      "look": 614,
      "##irl": 615,
      "pr": 616,
      "som": 617,
      "gu": 618,
      "hour": 619,
      "ro": 620,
      "worse": 621,
      "htt": 622,
      "let": 623,
      "http": 624,
      "ago": 625,
      "##blem": 626,
      "wanted": 627,
      "thinking": 628,
      "problem": 629,
      "##etime": 630,
      "##mber": 631,
      "girl": 632,
      "sor": 633,
      "##oy": 634,
      "##nt": 635,
      "##ically": 636,
      "best": 637,
      "amp": 638,
      "his": 639,
      "experi": 640,
      "self": 641,
      "##ease": 642,
      "em": 643,
      "##ame": 644,
      "fun": 645,
      "sometime": 646,
      "##ugg": 647,
      "dec": 648,
      "kind": 649,
      "mind": 650,
      "sorry": 651,
      "##atch": 652,
      "pan": 653,
      "post": 654,
      "give": 655,
      "bro": 656,
      "done": 657,
      "##ness": 658,
      "sometimes": 659,
      "sure": 660,
      "actually": 661,
      "put": 662,
      "living": 663,
      "constant": 664,
      "enough": 665,
      "heart": 666,
      "cry": 667,
      "hurt": 668,
      "past": 669,
      "##ten": 670,
      "supp": 671,
      "old": 672,
      "##are": 673,
      "reason": 674,
      "own": 675,
      "##less": 676,
      "##urn": 677,
      "op": 678,
      "pu": 679,
      "##sc": 680,
      "able": 681,
      "thank": 682,
      "underst": 683,
      "##other": 684,
      "##we": 685,
      "world": 686,
      "acc": 687,
      "##sy": 688,
      "##ild": 689,
      "##ree": 690,
      "attack": 691,
      "iss": 692,
      "mean": 693,
      "place": 694,
      "panic": 695,
      "scared": 696,
      "fl": 697,
      "##og": 698,
      "##otion": 699,
      "ask": 700,
      "issue": 701,
      "ok": 702,
      "soci": 703,
      "##ling": 704,
      "depressed": 705,
      "left": 706,
      "##ouse": 707,
      "litt": 708,
      "strugg": 709,
      "##act": 710,
      "bed": 711,
      "cant": 712,
      "sy": 713,
      "stress": 714,
      "little": 715,
      "##ept": 716,
      "##fect": 717,
      "another": 718,
      "##ably": 719,
      "high": 720,
      "##body": 721,
      "##ud": 722,
      "unt": 723,
      "fail": 724,
      "coll": 725,
      "understand": 726,
      "##read": 727,
      "##most": 728,
      "emotion": 729,
      "##ical": 730,
      "##wh": 731,
      "without": 732,
      "anxious": 733,
      "car": 734,
      "deal": 735,
      "sl": 736,
      "almost": 737,
      "norm": 738,
      "break": 739,
      "##let": 740,
      "our": 741,
      "##ser": 742,
      "working": 743,
      "prob": 744,
      "bel": 745,
      "differ": 746,
      "fo": 747,
      "used": 748,
      "##osed": 749,
      "##ory": 750,
      "two": 751,
      "ter": 752,
      "lost": 753,
      "imp": 754,
      "plan": 755,
      "##side": 756,
      "might": 757,
      "##ult": 758,
      "until": 759,
      "house": 760,
      "lat": 761,
      "##idal": 762,
      "alread": 763,
      "please": 764,
      "already": 765,
      "suicidal": 766,
      "those": 767,
      "relation": 768,
      "therapy": 769,
      "bit": 770,
      "relationship": 771,
      "gon": 772,
      "making": 773,
      "##sych": 774,
      "##ple": 775,
      "##ward": 776,
      "inter": 777,
      "probably": 778,
      "cra": 779,
      "suicide": 780,
      "##ond": 781,
      "leave": 782,
      "taking": 783,
      "wan": 784,
      "##es": 785,
      "haven": 786,
      "stay": 787,
      "##iting": 788,
      "##atter": 789,
      "##ange": 790,
      "hand": 791,
      "colle": 792,
      "sick": 793,
      "psych": 794,
      "us": 795,
      "##ac": 796,
      "inc": 797,
      "##rible": 798,
      "adv": 799,
      "college": 800,
      "##tty": 801,
      "ear": 802,
      "##ary": 803,
      "talking": 804,
      "body": 805,
      "##eam": 806,
      "##ise": 807,
      "pretty": 808,
      "complet": 809,
      "cause": 810,
      "mor": 811,
      "##ire": 812,
      "wrong": 813,
      "ext": 814,
      "brain": 815,
      "normal": 816,
      "play": 817,
      "cur": 818,
      "##zy": 819,
      "00": 820,
      "great": 821,
      "wasn": 822,
      "##ys": 823,
      "comm": 824,
      "fear": 825,
      "min": 826,
      "##em": 827,
      "##ying": 828,
      "##vent": 829,
      "watch": 830,
      "class": 831,
      "##ict": 832,
      "stuff": 833,
      "yet": 834,
      "medic": 835,
      "ap": 836,
      "##friend": 837,
      "##uation": 838,
      "experience": 839,
      "##all": 840,
      "##per": 841,
      "kid": 842,
      "##ced": 843,
      "##ute": 844,
      "##ense": 845,
      "suffer": 846,
      "gue": 847,
      "##ia": 848,
      "##oney": 849,
      "different": 850,
      "such": 851,
      "once": 852,
      "##ction": 853,
      "##ess": 854,
      "##ken": 855,
      "isn": 856,
      "show": 857,
      "guy": 858,
      "belie": 859,
      "couldn": 860,
      "stud": 861,
      "##ied": 862,
      "guess": 863,
      "money": 864,
      "##eci": 865,
      "mess": 866,
      "conf": 867,
      "##ather": 868,
      "sim": 869,
      "et": 870,
      "##ner": 871,
      "##onest": 872,
      "##ird": 873,
      "honest": 874,
      "##fort": 875,
      "##member": 876,
      "next": 877,
      "social": 878,
      "##ctor": 879,
      "remember": 880,
      "##ib": 881,
      "liter": 882,
      "morning": 883,
      "ma": 884,
      "##ty": 885,
      "child": 886,
      "miss": 887,
      "situation": 888,
      "recently": 889,
      "big": 890,
      "hell": 891,
      "la": 892,
      "others": 893,
      "##line": 894,
      "bar": 895,
      "gen": 896,
      "##ger": 897,
      "looking": 898,
      "therapist": 899,
      "rep": 900,
      "whole": 901,
      "gi": 902,
      "##ither": 903,
      "##row": 904,
      "finally": 905,
      "ru": 906,
      "close": 907,
      "constantly": 908,
      "exc": 909,
      "oh": 910,
      "tri": 911,
      "##lt": 912,
      "change": 913,
      "took": 914,
      "turn": 915,
      "cons": 916,
      "matter": 917,
      "forg": 918,
      "worth": 919,
      "che": 920,
      "phys": 921,
      "seems": 922,
      "literally": 923,
      "##mor": 924,
      "inst": 925,
      "##cess": 926,
      "suck": 927,
      "realiz": 928,
      "happened": 929,
      "ta": 930,
      "##iness": 931,
      "ob": 932,
      "##dit": 933,
      "least": 934,
      "##os": 935,
      "##pid": 936,
      "soon": 937,
      "##ously": 938,
      "stupid": 939,
      "idea": 940,
      "doctor": 941,
      "##xist": 942,
      "##vi": 943,
      "##qu": 944,
      "##den": 945,
      "list": 946,
      "hor": 947,
      "worst": 948,
      "sever": 949,
      "couple": 950,
      "cr": 951,
      "exist": 952,
      "##ible": 953,
      "worry": 954,
      "completely": 955,
      "advice": 956,
      "##uring": 957,
      "lol": 958,
      "gone": 959,
      "##joy": 960,
      "move": 961,
      "##ye": 962,
      "sur": 963,
      "rest": 964,
      "wonder": 965,
      "idk": 966,
      "bre": 967,
      "dad": 968,
      "eat": 969,
      "ill": 970,
      "tra": 971,
      "enjoy": 972,
      "bor": 973,
      "either": 974,
      "##yp": 975,
      "curr": 976,
      "etc": 977,
      "lon": 978,
      "res": 979,
      "bas": 980,
      "room": 981,
      "medication": 982,
      "##ink": 983,
      "found": 984,
      "word": 985,
      "##ix": 986,
      "believe": 987,
      "god": 988,
      "weird": 989,
      "sec": 990,
      "sympt": 991,
      "due": 992,
      "##ual": 993,
      "reg": 994,
      "came": 995,
      "##agn": 996,
      "##vel": 997,
      "##erg": 998,
      "ton": 999,
      "everyday": 1000,
      "saying": 1001,
      "symptom": 1002,
      "##ook": 1003,
      "fall": 1004,
      "sk": 1005,
      "wake": 1006,
      "okay": 1007,
      "each": 1008,
      "far": 1009,
      "##vers": 1010,
      "twit": 1011,
      "dri": 1012,
      "##ier": 1013,
      "breath": 1014,
      "red": 1015,
      "side": 1016,
      "##if": 1017,
      "##ped": 1018,
      "honestly": 1019,
      "##ug": 1020,
      "add": 1021,
      "resp": 1022,
      "extre": 1023,
      "tomor": 1024,
      "ass": 1025,
      "mar": 1026,
      "##ens": 1027,
      "disor": 1028,
      "fine": 1029,
      "ins": 1030,
      "death": 1031,
      "face": 1032,
      "tomorrow": 1033,
      "pass": 1034,
      "##cer": 1035,
      "##ital": 1036,
      "##ility": 1037,
      "moment": 1038,
      "low": 1039,
      "become": 1040,
      "que": 1041,
      "##uck": 1042,
      "##sol": 1043,
      "trau": 1044,
      "run": 1045,
      "##hh": 1046,
      "fact": 1047,
      "diagn": 1048,
      "##olog": 1049,
      "support": 1050,
      "during": 1051,
      "eas": 1052,
      "##use": 1053,
      "##ative": 1054,
      "##led": 1055,
      "##app": 1056,
      "##ffic": 1057,
      "atte": 1058,
      "later": 1059,
      "disorder": 1060,
      "cut": 1061,
      "ive": 1062,
      "seri": 1063,
      "##vid": 1064,
      "##ode": 1065,
      "##oint": 1066,
      "##ject": 1067,
      "##ately": 1068,
      "##ord": 1069,
      "meet": 1070,
      "deep": 1071,
      "mother": 1072,
      "game": 1073,
      "fut": 1074,
      "##red": 1075,
      "exha": 1076,
      "exhaust": 1077,
      "##lf": 1078,
      "##eless": 1079,
      "nobody": 1080,
      "poss": 1081,
      "future": 1082,
      "pay": 1083,
      "##ee": 1084,
      "super": 1085,
      "open": 1086,
      "##oid": 1087,
      "ent": 1088,
      "telling": 1089,
      "fight": 1090,
      "loved": 1091,
      "uni": 1092,
      "phone": 1093,
      "sub": 1094,
      "##gether": 1095,
      "##ween": 1096,
      "##where": 1097,
      "da": 1098,
      "press": 1099,
      "##umb": 1100,
      "together": 1101,
      "##stion": 1102,
      "quot": 1103,
      "bur": 1104,
      "event": 1105,
      "hit": 1106,
      "sma": 1107,
      "##ont": 1108,
      "alive": 1109,
      "deser": 1110,
      "usually": 1111,
      "sound": 1112,
      "##lain": 1113,
      "##ign": 1114,
      "strong": 1115,
      "nice": 1116,
      "##ew": 1117,
      "##ock": 1118,
      "##ave": 1119,
      "##erest": 1120,
      "##raid": 1121,
      "afraid": 1122,
      "both": 1123,
      "##ount": 1124,
      "attempt": 1125,
      "sn": 1126,
      "use": 1127,
      "##med": 1128,
      "##ident": 1129,
      "wait": 1130,
      "tru": 1131,
      "##scri": 1132,
      "def": 1133,
      "second": 1134,
      "hang": 1135,
      "##ract": 1136,
      "boy": 1137,
      "contro": 1138,
      "barely": 1139,
      "hum": 1140,
      "sw": 1141,
      "absol": 1142,
      "small": 1143,
      "dead": 1144,
      "##otiv": 1145,
      "interest": 1146,
      "##ert": 1147,
      "coming": 1148,
      "dream": 1149,
      "minute": 1150,
      "horrible": 1151,
      "lau": 1152,
      "##lo": 1153,
      "wast": 1154,
      "thanks": 1155,
      "ep": 1156,
      "wouldn": 1157,
      "dam": 1158,
      "lear": 1159,
      "typ": 1160,
      "##vie": 1161,
      "desp": 1162,
      "stuck": 1163,
      "longer": 1164,
      "cau": 1165,
      "half": 1166,
      "starting": 1167,
      "cop": 1168,
      "sm": 1169,
      "inf": 1170,
      "state": 1171,
      "cal": 1172,
      "food": 1173,
      "##du": 1174,
      "##az": 1175,
      "##pt": 1176,
      "contin": 1177,
      "girlfriend": 1178,
      "av": 1179,
      "esp": 1180,
      "motiv": 1181,
      "##ked": 1182,
      "online": 1183,
      "wal": 1184,
      "youn": 1185,
      "worried": 1186,
      "##spital": 1187,
      "hospital": 1188,
      "brother": 1189,
      "struggle": 1190,
      "##oice": 1191,
      "ang": 1192,
      "happens": 1193,
      "deserve": 1194,
      "bus": 1195,
      "##llow": 1196,
      "sex": 1197,
      "needed": 1198,
      "called": 1199,
      "currently": 1200,
      "vide": 1201,
      "##ww": 1202,
      "##sit": 1203,
      "##ided": 1204,
      "short": 1205,
      "crazy": 1206,
      "instead": 1207,
      "lonely": 1208,
      "free": 1209,
      "sing": 1210,
      "##ho": 1211,
      "##ined": 1212,
      "gotten": 1213,
      "##ecially": 1214,
      "##cing": 1215,
      "##ork": 1216,
      "text": 1217,
      "late": 1218,
      "oc": 1219,
      "##co": 1220,
      "##ider": 1221,
      "##rist": 1222,
      "chest": 1223,
      "reading": 1224,
      "struggling": 1225,
      "twitter": 1226,
      "##eaking": 1227,
      "beg": 1228,
      "##ision": 1229,
      "full": 1230,
      "##ester": 1231,
      "especially": 1232,
      "cour": 1233,
      "##ny": 1234,
      "story": 1235,
      "##ergy": 1236,
      "ef": 1237,
      "ann": 1238,
      "##isode": 1239,
      "however": 1240,
      "stopped": 1241,
      "experien": 1242,
      "push": 1243,
      "check": 1244,
      "question": 1245,
      "eye": 1246,
      "##ail": 1247,
      "ant": 1248,
      "rem": 1249,
      "episode": 1250,
      "video": 1251,
      "##ial": 1252,
      "##bb": 1253,
      "##ism": 1254,
      "##ised": 1255,
      "reach": 1256,
      "dist": 1257,
      "bring": 1258,
      "##ister": 1259,
      "sense": 1260,
      "##gn": 1261,
      "##mely": 1262,
      "decided": 1263,
      "listen": 1264,
      "age": 1265,
      "diffic": 1266,
      "seeing": 1267,
      "slow": 1268,
      "##pl": 1269,
      "grad": 1270,
      "terrible": 1271,
      "difficult": 1272,
      "dying": 1273,
      "ir": 1274,
      "##fu": 1275,
      "##mm": 1276,
      "##zz": 1277,
      "met": 1278,
      "##ark": 1279,
      "miser": 1280,
      "extremely": 1281,
      "##ointment": 1282,
      "eating": 1283,
      "yester": 1284,
      "##bt": 1285,
      "##sw": 1286,
      "forward": 1287,
      "##ited": 1288,
      "disapp": 1289,
      "count": 1290,
      "diagnosed": 1291,
      "control": 1292,
      "often": 1293,
      "knew": 1294,
      "early": 1295,
      "effect": 1296,
      "yesterday": 1297,
      "dra": 1298,
      "set": 1299,
      "##oke": 1300,
      "##ph": 1301,
      "top": 1302,
      "##oud": 1303,
      "neg": 1304,
      "saw": 1305,
      "apart": 1306,
      "damn": 1307,
      "hu": 1308,
      "ret": 1309,
      "##cy": 1310,
      "##reci": 1311,
      "unc": 1312,
      "spend": 1313,
      "intern": 1314,
      "basically": 1315,
      "##ned": 1316,
      "##ssion": 1317,
      "knowing": 1318,
      "mentally": 1319,
      "appreci": 1320,
      "study": 1321,
      "human": 1322,
      "absolut": 1323,
      "yea": 1324,
      "##ell": 1325,
      "##aa": 1326,
      "##erv": 1327,
      "inside": 1328,
      "sol": 1329,
      "##ention": 1330,
      "fast": 1331,
      "covid": 1332,
      "asked": 1333,
      "physical": 1334,
      "del": 1335,
      "gave": 1336,
      "pill": 1337,
      "##bs": 1338,
      "explain": 1339,
      "##gger": 1340,
      "course": 1341,
      "absolutely": 1342,
      "main": 1343,
      "treat": 1344,
      "finish": 1345,
      "lately": 1346,
      "sister": 1347,
      "##ru": 1348,
      "##oman": 1349,
      "waiting": 1350,
      "outside": 1351,
      "energy": 1352,
      "single": 1353,
      "ur": 1354,
      "##set": 1355,
      "tou": 1356,
      "##oup": 1357,
      "inv": 1358,
      "step": 1359,
      "##ular": 1360,
      "hold": 1361,
      "fix": 1362,
      "##each": 1363,
      "eng": 1364,
      "##fortable": 1365,
      "bc": 1366,
      "##mat": 1367,
      "posit": 1368,
      "helped": 1369,
      "true": 1370,
      "quit": 1371,
      "supposed": 1372,
      "opt": 1373,
      "watching": 1374,
      "tonight": 1375,
      "##lic": 1376,
      "##mg": 1377,
      "beh": 1378,
      "share": 1379,
      "expect": 1380,
      "trauma": 1381,
      "angry": 1382,
      "bab": 1383,
      "luck": 1384,
      "##ah": 1385,
      "##gest": 1386,
      "losing": 1387,
      "imag": 1388,
      "broke": 1389,
      "motivation": 1390,
      "##air": 1391,
      "##ted": 1392,
      "##ater": 1393,
      "test": 1394,
      "speak": 1395,
      "gener": 1396,
      "truly": 1397,
      "behind": 1398,
      "answ": 1399,
      "whenever": 1400,
      "bull": 1401,
      "##ude": 1402,
      "playing": 1403,
      "consider": 1404,
      "severe": 1405,
      "answer": 1406,
      "pri": 1407,
      "##room": 1408,
      "grade": 1409,
      "realized": 1410,
      "wondering": 1411,
      "##iat": 1412,
      "anyway": 1413,
      "lose": 1414,
      "chang": 1415,
      "cold": 1416,
      "ended": 1417,
      "handle": 1418,
      "commit": 1419,
      "trigger": 1420,
      "entire": 1421,
      "bir": 1422,
      "smo": 1423,
      "##time": 1424,
      "whatever": 1425,
      "group": 1426,
      "kinda": 1427,
      "foc": 1428,
      "follow": 1429,
      "mid": 1430,
      "woman": 1431,
      "##yy": 1432,
      "worked": 1433,
      "drink": 1434,
      "##ively": 1435,
      "suffering": 1436,
      "exhausted": 1437,
      "boyfriend": 1438,
      "continue": 1439,
      "yeah": 1440,
      "fre": 1441,
      "lead": 1442,
      "##rif": 1443,
      "guil": 1444,
      "taken": 1445,
      "possible": 1446,
      "birth": 1447,
      "cu": 1448,
      "speci": 1449,
      "manag": 1450,
      "asking": 1451,
      "bother": 1452,
      "given": 1453,
      "forget": 1454,
      "fig": 1455,
      "pea": 1456,
      "yes": 1457,
      "##oc": 1458,
      "##man": 1459,
      "tot": 1460,
      "##rew": 1461,
      "stand": 1462,
      "mus": 1463,
      "spent": 1464,
      "##unch": 1465,
      "fucked": 1466,
      "happening": 1467,
      "writing": 1468,
      "failure": 1469,
      "hot": 1470,
      "lay": 1471,
      "pur": 1472,
      "##ian": 1473,
      "##ax": 1474,
      "##ster": 1475,
      "##ret": 1476,
      "prop": 1477,
      "gl": 1478,
      "near": 1479,
      "pick": 1480,
      "sort": 1481,
      "swe": 1482,
      "##tle": 1483,
      "##owing": 1484,
      "##etic": 1485,
      "weight": 1486,
      "sud": 1487,
      "leg": 1488,
      "laugh": 1489,
      "type": 1490,
      "peace": 1491,
      "cre": 1492,
      "ra": 1493,
      "##used": 1494,
      "##ump": 1495,
      "comment": 1496,
      "overwh": 1497,
      "sleeping": 1498,
      "partner": 1499,
      "psychiat": 1500,
      "overwhel": 1501,
      "cert": 1502,
      "father": 1503,
      "##iss": 1504,
      "##itch": 1505,
      "##ustr": 1506,
      "##ault": 1507,
      "accept": 1508,
      "sudden": 1509,
      "empt": 1510,
      "##ouble": 1511,
      "##ane": 1512,
      "##unk": 1513,
      "##unity": 1514,
      "clo": 1515,
      "badly": 1516,
      "ready": 1517,
      "calm": 1518,
      "est": 1519,
      "##andom": 1520,
      "spir": 1521,
      "clear": 1522,
      "disc": 1523,
      "##fully": 1524,
      "must": 1525,
      "random": 1526,
      "vent": 1527,
      "##hood": 1528,
      "##ush": 1529,
      "##sel": 1530,
      "##pped": 1531,
      "respon": 1532,
      "emb": 1533,
      "war": 1534,
      "tho": 1535,
      "ref": 1536,
      "prog": 1537,
      "affect": 1538,
      "yourself": 1539,
      "personal": 1540,
      "##ize": 1541,
      "annoy": 1542,
      "miserable": 1543,
      "aff": 1544,
      "##gr": 1545,
      "tran": 1546,
      "##usive": 1547,
      "gradu": 1548,
      "cor": 1549,
      "mood": 1550,
      "rather": 1551,
      "sent": 1552,
      "##ves": 1553,
      "trust": 1554,
      "leaving": 1555,
      "quite": 1556,
      "appointment": 1557,
      "dealing": 1558,
      "##wards": 1559,
      "maj": 1560,
      "easy": 1561,
      "meeting": 1562,
      "avoid": 1563,
      "sat": 1564,
      "forever": 1565,
      "seen": 1566,
      "died": 1567,
      "poor": 1568,
      "##ung": 1569,
      "between": 1570,
      "drug": 1571,
      "heard": 1572,
      "emotional": 1573,
      "option": 1574,
      "major": 1575,
      "dark": 1576,
      "tre": 1577,
      "##ient": 1578,
      "ind": 1579,
      "dest": 1580,
      "##rass": 1581,
      "safe": 1582,
      "##mpl": 1583,
      "aren": 1584,
      "##spect": 1585,
      "drop": 1586,
      "mention": 1587,
      "awful": 1588,
      "decision": 1589,
      "message": 1590,
      "genu": 1591,
      "seriously": 1592,
      "country": 1593,
      "cy": 1594,
      "##ming": 1595,
      "##mit": 1596,
      "stom": 1597,
      "##iday": 1598,
      "##ilar": 1599,
      "twe": 1600,
      "sitting": 1601,
      "physically": 1602,
      "##view": 1603,
      "focus": 1604,
      "aut": 1605,
      "esc": 1606,
      "mad": 1607,
      "##hd": 1608,
      "##dd": 1609,
      "##work": 1610,
      "##vin": 1611,
      "dog": 1612,
      "chance": 1613,
      "##ape": 1614,
      "drive": 1615,
      "running": 1616,
      "music": 1617,
      "bat": 1618,
      "teach": 1619,
      "##inking": 1620,
      "light": 1621,
      "notic": 1622,
      "allow": 1623,
      "front": 1624,
      "mum": 1625,
      "perfect": 1626,
      "joke": 1627,
      "missed": 1628,
      "write": 1629,
      "eventually": 1630,
      "birthday": 1631,
      "stomach": 1632,
      "book": 1633,
      "mine": 1634,
      "water": 1635,
      "##ially": 1636,
      "##cle": 1637,
      "##hol": 1638,
      "##dle": 1639,
      "##ank": 1640,
      "whe": 1641,
      "suc": 1642,
      "##ross": 1643,
      "conne": 1644,
      "moved": 1645,
      "art": 1646,
      "adhd": 1647,
      "prescri": 1648,
      "shitty": 1649,
      "function": 1650,
      "broken": 1651,
      "realize": 1652,
      "##versity": 1653,
      "baby": 1654,
      "det": 1655,
      "hy": 1656,
      "nerv": 1657,
      "pa": 1658,
      "send": 1659,
      "##ping": 1660,
      "lie": 1661,
      "hey": 1662,
      "##ram": 1663,
      "##istic": 1664,
      "talked": 1665,
      "blood": 1666,
      "turned": 1667,
      "reddit": 1668,
      "daily": 1669,
      "tweet": 1670,
      "kept": 1671,
      "sign": 1672,
      "using": 1673,
      "##ber": 1674,
      "##amp": 1675,
      "##up": 1676,
      "upset": 1677,
      "##aining": 1678,
      "exact": 1679,
      "mult": 1680,
      "name": 1681,
      "similar": 1682,
      "afford": 1683,
      "lack": 1684,
      "##uu": 1685,
      "haha": 1686,
      "wanting": 1687,
      "amount": 1688,
      "convers": 1689,
      "reality": 1690,
      "university": 1691,
      "nervous": 1692,
      "ach": 1693,
      "ign": 1694,
      "##igh": 1695,
      "##ror": 1696,
      "##mory": 1697,
      "killing": 1698,
      "meaning": 1699,
      "##ibly": 1700,
      "experienced": 1701,
      "negative": 1702,
      "date": 1703,
      "fat": 1704,
      "none": 1705,
      "##how": 1706,
      "##bed": 1707,
      "##ym": 1708,
      "##ase": 1709,
      "memory": 1710,
      "loss": 1711,
      "case": 1712,
      "happiness": 1713,
      "trouble": 1714,
      "missing": 1715,
      "terrif": 1716,
      "import": 1717,
      "except": 1718,
      "##velop": 1719,
      "begin": 1720,
      "psychiatrist": 1721,
      "ed": 1722,
      "##vor": 1723,
      "thel": 1724,
      "##any": 1725,
      "##ote": 1726,
      "amaz": 1727,
      "develop": 1728,
      "harm": 1729,
      "quick": 1730,
      "failed": 1731,
      "childhood": 1732,
      "forgot": 1733,
      "burden": 1734,
      "imagine": 1735,
      "empty": 1736,
      "conversation": 1737,
      "eff": 1738,
      "kick": 1739,
      "##sday": 1740,
      "three": 1741,
      "thats": 1742,
      "stra": 1743,
      "sho": 1744,
      "anyways": 1745,
      "##aught": 1746,
      "order": 1747,
      "##iple": 1748,
      "##ache": 1749,
      "##anger": 1750,
      "serious": 1751,
      "certain": 1752,
      "embar": 1753,
      "multiple": 1754,
      "important": 1755,
      "cle": 1756,
      "woke": 1757,
      "##ef": 1758,
      "##xic": 1759,
      "##oming": 1760,
      "star": 1761,
      "asleep": 1762,
      "prom": 1763,
      "thelma": 1764,
      "mist": 1765,
      "opp": 1766,
      "sou": 1767,
      "##io": 1768,
      "##erbs": 1769,
      "form": 1770,
      "wife": 1771,
      "weed": 1772,
      "sun": 1773,
      "somehow": 1774,
      "frustr": 1775,
      "des": 1776,
      "##usb": 1777,
      "pres": 1778,
      "##ability": 1779,
      "sadness": 1780,
      "trip": 1781,
      "huge": 1782,
      "nat": 1783,
      "val": 1784,
      "##ium": 1785,
      "##inely": 1786,
      "abuse": 1787,
      "concer": 1788,
      "ending": 1789,
      "00b": 1790,
      "##osis": 1791,
      "illness": 1792,
      "changed": 1793,
      "proper": 1794,
      "clean": 1795,
      "cow": 1796,
      "city": 1797,
      "path": 1798,
      "anger": 1799,
      "##lled": 1800,
      "##earch": 1801,
      "weekend": 1802,
      "attention": 1803,
      "simp": 1804,
      "giving": 1805,
      "obvi": 1806,
      "born": 1807,
      "breathing": 1808,
      "waste": 1809,
      "young": 1810,
      "genuinely": 1811,
      "embarrass": 1812,
      "bea": 1813,
      "mg": 1814,
      "till": 1815,
      "vis": 1816,
      "##iod": 1817,
      "##ious": 1818,
      "##lling": 1819,
      "level": 1820,
      "qui": 1821,
      "funny": 1822,
      "emotionally": 1823,
      "lazy": 1824,
      "addict": 1825,
      "whether": 1826,
      "mir": 1827,
      "non": 1828,
      "pol": 1829,
      "moving": 1830,
      "period": 1831,
      "didnt": 1832,
      "coun": 1833,
      "stressed": 1834,
      "term": 1835,
      "appreciate": 1836,
      "positive": 1837,
      "hea": 1838,
      "tur": 1839,
      "##come": 1840,
      "theek": 1841,
      "##though": 1842,
      "alco": 1843,
      "convin": 1844,
      "choice": 1845,
      "shower": 1846,
      "student": 1847,
      "defin": 1848,
      "totally": 1849,
      "alcohol": 1850,
      "fault": 1851,
      "numb": 1852,
      "pie": 1853,
      "voice": 1854,
      "##over": 1855,
      "##down": 1856,
      "##ash": 1857,
      "##right": 1858,
      "although": 1859,
      "exam": 1860,
      "pub": 1861,
      "impro": 1862,
      "pressure": 1863,
      "theekween": 1864,
      "bot": 1865,
      "fake": 1866,
      "jud": 1867,
      "##ak": 1868,
      "toxic": 1869,
      "meant": 1870,
      "anywhere": 1871,
      "##ppy": 1872,
      "##rage": 1873,
      "scr": 1874,
      "contact": 1875,
      "healthy": 1876,
      "putting": 1877,
      "simple": 1878,
      "hello": 1879,
      "result": 1880,
      "pression": 1881,
      "busy": 1882,
      "##bby": 1883,
      "slowly": 1884,
      "general": 1885,
      "middle": 1886,
      "##mploy": 1887,
      "effort": 1888,
      "mistake": 1889,
      "cat": 1890,
      "dou": 1891,
      "rid": 1892,
      "##br": 1893,
      "##to": 1894,
      "##utter": 1895,
      "friendship": 1896,
      "hoping": 1897,
      "build": 1898,
      "accident": 1899,
      "ruined": 1900,
      "worthless": 1901,
      "several": 1902,
      "walk": 1903,
      "apartment": 1904,
      "teacher": 1905,
      "simply": 1906,
      "pot": 1907,
      "pas": 1908,
      "win": 1909,
      "weak": 1910,
      "##ike": 1911,
      "##que": 1912,
      "anybody": 1913,
      "became": 1914,
      "##ies": 1915,
      "offer": 1916,
      "##olar": 1917,
      "career": 1918,
      "finding": 1919,
      "killed": 1920,
      "headache": 1921,
      "selfish": 1922,
      "foot": 1923,
      "incl": 1924,
      "ruin": 1925,
      "learn": 1926,
      "younger": 1927,
      "ocd": 1928,
      "figure": 1929,
      "spiral": 1930,
      "##selves": 1931,
      "straight": 1932,
      "definit": 1933,
      "cool": 1934,
      "dumb": 1935,
      "##ik": 1936,
      "##ub": 1937,
      "towards": 1938,
      "sug": 1939,
      "char": 1940,
      "harder": 1941,
      "shouldn": 1942,
      "passed": 1943,
      "despite": 1944,
      "occ": 1945,
      "##usband": 1946,
      "husband": 1947,
      "ugh": 1948,
      "deg": 1949,
      "##sherbs": 1950,
      "##unt": 1951,
      "dread": 1952,
      "drunk": 1953,
      "hurting": 1954,
      "account": 1955,
      "apolog": 1956,
      "repe": 1957,
      "regret": 1958,
      "suddenly": 1959,
      "amazing": 1960,
      "thelmasherbs": 1961,
      "beaut": 1962,
      "piece": 1963,
      "bath": 1964,
      "fit": 1965,
      "fill": 1966,
      "gra": 1967,
      "jump": 1968,
      "men": 1969,
      "##ric": 1970,
      "##ency": 1971,
      "note": 1972,
      "along": 1973,
      "somewhere": 1974,
      "unfort": 1975,
      "throw": 1976,
      "company": 1977,
      "mostly": 1978,
      "awake": 1979,
      "looked": 1980,
      "older": 1981,
      "psycholog": 1982,
      "skin": 1983,
      "traumat": 1984,
      "##ocked": 1985,
      "gri": 1986,
      "##bit": 1987,
      "##ution": 1988,
      "notice": 1989,
      "abusive": 1990,
      "descri": 1991,
      "examp": 1992,
      "comfortable": 1993,
      "space": 1994,
      "##ized": 1995,
      "failing": 1996,
      "interview": 1997,
      "##dition": 1998,
      "worrying": 1999,
      "hanging": 2000,
      "internet": 2001,
      "touch": 2002,
      "destro": 2003,
      "unfortun": 2004,
      "example": 2005,
      "cri": 2006,
      "pict": 2007,
      "##iful": 2008,
      "##sd": 2009,
      "town": 2010,
      "hair": 2011,
      "shut": 2012,
      "goal": 2013,
      "process": 2014,
      "overd": 2015,
      "painful": 2016,
      "planning": 2017,
      "interact": 2018,
      "complete": 2019,
      "fighting": 2020,
      "escape": 2021,
      "terrified": 2022,
      "definitely": 2023,
      "picture": 2024,
      "ah": 2025,
      "tear": 2026,
      "##mate": 2027,
      "##iny": 2028,
      "##erate": 2029,
      "hasn": 2030,
      "stutter": 2031,
      "##ured": 2032,
      "##ained": 2033,
      "##aster": 2034,
      "express": 2035,
      "grand": 2036,
      "relax": 2037,
      "hopeless": 2038,
      "slight": 2039,
      "biggest": 2040,
      "cope": 2041,
      "uncom": 2042,
      "cycle": 2043,
      "noticed": 2044,
      "burn": 2045,
      "dating": 2046,
      "miz": 2047,
      "ug": 2048,
      "##lish": 2049,
      "beat": 2050,
      "waking": 2051,
      "##ending": 2052,
      "cap": 2053,
      "une": 2054,
      "adult": 2055,
      "##ask": 2056,
      "black": 2057,
      "rock": 2058,
      "incr": 2059,
      "current": 2060,
      "##load": 2061,
      "treatment": 2062,
      "exactly": 2063,
      "present": 2064,
      "obviously": 2065,
      "air": 2066,
      "daught": 2067,
      "ele": 2068,
      "ess": 2069,
      "ser": 2070,
      "sens": 2071,
      "##bo": 2072,
      "##aly": 2073,
      "##stem": 2074,
      "beha": 2075,
      "##oooo": 2076,
      "##aper": 2077,
      "intense": 2078,
      "earl": 2079,
      "existence": 2080,
      "driving": 2081,
      "extreme": 2082,
      "specif": 2083,
      "success": 2084,
      "prescribed": 2085,
      "public": 2086,
      "degree": 2087,
      "daughter": 2088,
      "0mg": 2089,
      "ben": 2090,
      "cried": 2091,
      "hide": 2092,
      "hol": 2093,
      "pand": 2094,
      "tip": 2095,
      "vi": 2096,
      "wind": 2097,
      "thro": 2098,
      "summ": 2099,
      "dire": 2100,
      "overth": 2101,
      "blame": 2102,
      "partic": 2103,
      "##ivity": 2104,
      "accom": 2105,
      "system": 2106,
      "useless": 2107,
      "confident": 2108,
      "causing": 2109,
      "guilty": 2110,
      "purp": 2111,
      "nearly": 2112,
      "unfortunately": 2113,
      "##health": 2114,
      "##fer": 2115,
      "##eng": 2116,
      "isol": 2117,
      "##idc": 2118,
      "conc": 2119,
      "lex": 2120,
      "manage": 2121,
      "keeping": 2122,
      "appear": 2123,
      "conte": 2124,
      "final": 2125,
      "posting": 2126,
      "society": 2127,
      "listening": 2128,
      "##zzidc": 2129,
      "mizzzidc": 2130,
      "throat": 2131,
      "du": 2132,
      "gym": 2133,
      "lt": 2134,
      "##aw": 2135,
      "##form": 2136,
      "##pr": 2137,
      "##eas": 2138,
      "becoming": 2139,
      "immed": 2140,
      "unable": 2141,
      "movie": 2142,
      "##apro": 2143,
      "wont": 2144,
      "doesnt": 2145,
      "excuse": 2146,
      "regard": 2147,
      "irr": 2148,
      "priv": 2149,
      "progress": 2150,
      "annoying": 2151,
      "er": 2152,
      "pract": 2153,
      "sil": 2154,
      "##oss": 2155,
      "##ring": 2156,
      "##ule": 2157,
      "##arily": 2158,
      "everytime": 2159,
      "session": 2160,
      "chat": 2161,
      "teen": 2162,
      "##iew": 2163,
      "arm": 2164,
      "##usion": 2165,
      "scary": 2166,
      "pret": 2167,
      "##gging": 2168,
      "hobby": 2169,
      "proud": 2170,
      "struggled": 2171,
      "##emic": 2172,
      "male": 2173,
      "surv": 2174,
      "remind": 2175,
      "overwhelming": 2176,
      "quiet": 2177,
      "potent": 2178,
      "pandemic": 2179,
      "lexapro": 2180,
      "ash": 2181,
      "bip": 2182,
      "fur": 2183,
      "hug": 2184,
      "ris": 2185,
      "lived": 2186,
      "##itive": 2187,
      "exer": 2188,
      "plus": 2189,
      "themselves": 2190,
      "produ": 2191,
      "spot": 2192,
      "drinking": 2193,
      "grow": 2194,
      "##ney": 2195,
      "party": 2196,
      "incred": 2197,
      "##ibility": 2198,
      "caused": 2199,
      "return": 2200,
      "response": 2201,
      "personality": 2202,
      "trans": 2203,
      "heav": 2204,
      "beautiful": 2205,
      "immedi": 2206,
      "hung": 2207,
      "rent": 2208,
      "son": 2209,
      "tight": 2210,
      "tiny": 2211,
      "wear": 2212,
      "##ii": 2213,
      "##ba": 2214,
      "##ffe": 2215,
      "##ube": 2216,
      "##orn": 2217,
      "##ower": 2218,
      "##epress": 2219,
      "reject": 2220,
      "##urance": 2221,
      "##mpath": 2222,
      "disg": 2223,
      "against": 2224,
      "relie": 2225,
      "medical": 2226,
      "##amed": 2227,
      "pray": 2228,
      "extra": 2229,
      "trapped": 2230,
      "experiencing": 2231,
      "disappear": 2232,
      "connect": 2233,
      "opport": 2234,
      "pathetic": 2235,
      "includ": 2236,
      "uncomfortable": 2237,
      "ble": 2238,
      "pm": 2239,
      "sea": 2240,
      "##ift": 2241,
      "##bye": 2242,
      "##sch": 2243,
      "tor": 2244,
      "##icking": 2245,
      "fell": 2246,
      "##ope": 2247,
      "rev": 2248,
      "upd": 2249,
      "condition": 2250,
      "choo": 2251,
      "##ational": 2252,
      "##shit": 2253,
      "project": 2254,
      "breaking": 2255,
      "admit": 2256,
      "twice": 2257,
      "aware": 2258,
      "earth": 2259,
      "smile": 2260,
      "antid": 2261,
      "tough": 2262,
      "hyper": 2263,
      "destroy": 2264,
      "earlier": 2265,
      "bipolar": 2266,
      "exerc": 2267,
      "cust": 2268,
      "song": 2269,
      "view": 2270,
      "wer": 2271,
      "##kward": 2272,
      "itself": 2273,
      "alot": 2274,
      "fair": 2275,
      "loser": 2276,
      "fully": 2277,
      "joy": 2278,
      "goodbye": 2279,
      "##olo": 2280,
      "##mare": 2281,
      "recover": 2282,
      "awkward": 2283,
      "bored": 2284,
      "falling": 2285,
      "passion": 2286,
      "inform": 2287,
      "bullied": 2288,
      "smoking": 2289,
      "soul": 2290,
      "properly": 2291,
      "doubt": 2292,
      "holiday": 2293,
      "##epressant": 2294,
      "opportunity": 2295,
      "antidepressant": 2296,
      "bill": 2297,
      "lang": 2298,
      "nor": 2299,
      "si": 2300,
      "vac": 2301,
      "##anci": 2302,
      "within": 2303,
      "shake": 2304,
      "depressive": 2305,
      "helping": 2306,
      "train": 2307,
      "office": 2308,
      "related": 2309,
      "nightmare": 2310,
      "appar": 2311,
      "financi": 2312,
      "buy": 2313,
      "flo": 2314,
      "imposs": 2315,
      "##ify": 2316,
      "##ific": 2317,
      "insane": 2318,
      "easier": 2319,
      "distract": 2320,
      "finished": 2321,
      "urge": 2322,
      "english": 2323,
      "battle": 2324,
      "achie": 2325,
      "quickly": 2326,
      "ugly": 2327,
      "ba": 2328,
      "heal": 2329,
      "pat": 2330,
      "vict": 2331,
      "##no": 2332,
      "##mer": 2333,
      "beside": 2334,
      "store": 2335,
      "##rib": 2336,
      "##pping": 2337,
      "dev": 2338,
      "##une": 2339,
      "##cious": 2340,
      "scen": 2341,
      "growing": 2342,
      "##izing": 2343,
      "medium": 2344,
      "phot": 2345,
      "seemed": 2346,
      "stressful": 2347,
      "understanding": 2348,
      "reply": 2349,
      "crush": 2350,
      "regular": 2351,
      "respond": 2352,
      "edge": 2353,
      "summer": 2354,
      "purpose": 2355,
      "further": 2356,
      "immediately": 2357,
      "disgust": 2358,
      "au": 2359,
      "ev": 2360,
      "je": 2361,
      "loud": 2362,
      "nu": 2363,
      "www": 2364,
      "##iel": 2365,
      "##here": 2366,
      "##na": 2367,
      "##ers": 2368,
      "##omm": 2369,
      "##idence": 2370,
      "##tern": 2371,
      "org": 2372,
      "everybody": 2373,
      "debt": 2374,
      "comfort": 2375,
      "enter": 2376,
      "tech": 2377,
      "sched": 2378,
      "prep": 2379,
      "relig": 2380,
      "throughout": 2381,
      "pointless": 2382,
      "bos": 2383,
      "news": 2384,
      "letting": 2385,
      "##duc": 2386,
      "solution": 2387,
      "guilt": 2388,
      "glad": 2389,
      "treated": 2390,
      "bathroom": 2391,
      "describe": 2392,
      "impossible": 2393,
      "card": 2394,
      "din": 2395,
      "employ": 2396,
      "educ": 2397,
      "four": 2398,
      "gre": 2399,
      "hom": 2400,
      "zolo": 2401,
      "##de": 2402,
      "##rr": 2403,
      "##ron": 2404,
      "##ged": 2405,
      "##ued": 2406,
      "##ero": 2407,
      "##ele": 2408,
      "##ising": 2409,
      "##aring": 2410,
      "forced": 2411,
      "wall": 2412,
      "door": 2413,
      "dose": 2414,
      "cancer": 2415,
      "##ended": 2416,
      "nowhere": 2417,
      "screw": 2418,
      "himself": 2419,
      "homework": 2420,
      "decide": 2421,
      "breakdown": 2422,
      "000": 2423,
      "community": 2424,
      "interested": 2425,
      "smart": 2426,
      "allowed": 2427,
      "scream": 2428,
      "incredibly": 2429,
      "zoloft": 2430,
      "cir": 2431,
      "line": 2432,
      "paper": 2433,
      "rant": 2434,
      "rac": 2435,
      "ut": 2436,
      "##eth": 2437,
      "##eem": 2438,
      "##night": 2439,
      "member": 2440,
      "lik": 2441,
      "force": 2442,
      "doc": 2443,
      "known": 2444,
      "favor": 2445,
      "log": 2446,
      "enc": 2447,
      "##iest": 2448,
      "relate": 2449,
      "action": 2450,
      "paran": 2451,
      "common": 2452,
      "confused": 2453,
      "boring": 2454,
      "switch": 2455,
      "##plish": 2456,
      "delet": 2457,
      "invol": 2458,
      "bullshit": 2459,
      "particular": 2460,
      "update": 2461,
      "apparently": 2462,
      "bf": 2463,
      "edit": 2464,
      "fil": 2465,
      "search": 2466,
      "team": 2467,
      "ya": 2468,
      "##book": 2469,
      "##ging": 2470,
      "##tain": 2471,
      "##enn": 2472,
      "##ored": 2473,
      "##itation": 2474,
      "feed": 2475,
      "freak": 2476,
      "unf": 2477,
      "temp": 2478,
      "clin": 2479,
      "brought": 2480,
      "hopefully": 2481,
      "hole": 2482,
      "staying": 2483,
      "diagnosis": 2484,
      "exhausting": 2485,
      "holding": 2486,
      "detail": 2487,
      "mirror": 2488,
      "including": 2489,
      "##school": 2490,
      "boo": 2491,
      "hist": 2492,
      "jour": 2493,
      "omg": 2494,
      "rn": 2495,
      "sle": 2496,
      "tend": 2497,
      "task": 2498,
      "uk": 2499,
      "##ball": 2500,
      "##eable": 2501,
      "sooo": 2502,
      "shaking": 2503,
      "##ates": 2504,
      "prof": 2505,
      "cover": 2506,
      "wrote": 2507,
      "decent": 2508,
      "suffered": 2509,
      "respect": 2510,
      "attempted": 2511,
      "coping": 2512,
      "business": 2513,
      "smoke": 2514,
      "special": 2515,
      "managed": 2516,
      "sweet": 2517,
      "shoe": 2518,
      "improve": 2519,
      "accomplish": 2520,
      "season": 2521,
      "choose": 2522,
      "likely": 2523,
      "cared": 2524,
      "gt": 2525,
      "gun": 2526,
      "pt": 2527,
      "pack": 2528,
      "page": 2529,
      "ran": 2530,
      "ss": 2531,
      "##uage": 2532,
      "##ze": 2533,
      "##omn": 2534,
      "##ition": 2535,
      "shift": 2536,
      "yout": 2537,
      "##fession": 2538,
      "somebody": 2539,
      "dem": 2540,
      "loving": 2541,
      "area": 2542,
      "opin": 2543,
      "usual": 2544,
      "medicine": 2545,
      "studying": 2546,
      "confidence": 2547,
      "report": 2548,
      "consist": 2549,
      "obse": 2550,
      "lonel": 2551,
      "mark": 2552,
      "##ensive": 2553,
      "sneak": 2554,
      "truth": 2555,
      "interesting": 2556,
      "walking": 2557,
      "sexual": 2558,
      "considering": 2559,
      "beginning": 2560,
      "developed": 2561,
      "behavi": 2562,
      "survive": 2563,
      "product": 2564,
      "##ffee": 2565,
      "weren": 2566,
      "photo": 2567,
      "dinner": 2568,
      "bear": 2569,
      "bought": 2570,
      "bunch": 2571,
      "dan": 2572,
      "gar": 2573,
      "lying": 2574,
      "mod": 2575,
      "rout": 2576,
      "rough": 2577,
      "tit": 2578,
      "yell": 2579,
      "##ife": 2580,
      "##min": 2581,
      "##ened": 2582,
      "##thes": 2583,
      "##mester": 2584,
      "shop": 2585,
      "shame": 2586,
      "remo": 2587,
      "freaking": 2588,
      "lock": 2589,
      "unb": 2590,
      "unless": 2591,
      "##unic": 2592,
      "##ource": 2593,
      "scare": 2594,
      "courage": 2595,
      "bitch": 2596,
      "crash": 2597,
      "minim": 2598,
      "redu": 2599,
      "wasted": 2600,
      "lucky": 2601,
      "graduated": 2602,
      "traumatic": 2603,
      "exercise": 2604,
      "opinion": 2605,
      "bi": 2606,
      "mile": 2607,
      "pet": 2608,
      "##go": 2609,
      "##uc": 2610,
      "##ination": 2611,
      "##eased": 2612,
      "##issed": 2613,
      "##sec": 2614,
      "shy": 2615,
      "##oph": 2616,
      "semester": 2617,
      "seek": 2618,
      "cost": 2619,
      "##aged": 2620,
      "actual": 2621,
      "##ization": 2622,
      "busp": 2623,
      "highschool": 2624,
      "belong": 2625,
      "difference": 2626,
      "stayed": 2627,
      "excited": 2628,
      "basic": 2629,
      "breathe": 2630,
      "##hhhh": 2631,
      "learning": 2632,
      "anti": 2633,
      "laughing": 2634,
      "overwhelmed": 2635,
      "visit": 2636,
      "window": 2637,
      "custom": 2638,
      "youtube": 2639,
      "loneliness": 2640,
      "fire": 2641,
      "mill": 2642,
      "nar": 2643,
      "rain": 2644,
      "tick": 2645,
      "##ith": 2646,
      "##ina": 2647,
      "##ining": 2648,
      "##ered": 2649,
      "##sted": 2650,
      "##itten": 2651,
      "##lying": 2652,
      "ability": 2653,
      "somewh": 2654,
      "friday": 2655,
      "save": 2656,
      "spring": 2657,
      "intro": 2658,
      "coffee": 2659,
      "disease": 2660,
      "stranger": 2661,
      "complain": 2662,
      "caring": 2663,
      "carry": 2664,
      "normally": 2665,
      "surpr": 2666,
      "insomn": 2667,
      "subject": 2668,
      "learned": 2669,
      "topic": 2670,
      "cuz": 2671,
      "esteem": 2672,
      "fatig": 2673,
      "desire": 2674,
      "natur": 2675,
      "convinced": 2676,
      "psychologist": 2677,
      "risk": 2678,
      "language": 2679,
      "besides": 2680,
      "number": 2681,
      "techn": 2682,
      "encou": 2683,
      "history": 2684,
      "ptsd": 2685,
      "somewhat": 2686,
      "catch": 2687,
      "den": 2688,
      "danger": 2689,
      "five": 2690,
      "km": 2691,
      "lma": 2692,
      "mou": 2693,
      "rom": 2694,
      "table": 2695,
      "vom": 2696,
      "##get": 2697,
      "##ume": 2698,
      "##pic": 2699,
      "##my": 2700,
      "##zen": 2701,
      "liked": 2702,
      "##otic": 2703,
      "necess": 2704,
      "env": 2705,
      "##mail": 2706,
      "ground": 2707,
      "hearing": 2708,
      "stopping": 2709,
      "##haha": 2710,
      "calling": 2711,
      "flight": 2712,
      "supportive": 2713,
      "wasting": 2714,
      "appreciated": 2715,
      "position": 2716,
      "respons": 2717,
      "cowork": 2718,
      "schedule": 2719,
      "cent": 2720,
      "der": 2721,
      "fant": 2722,
      "pop": 2723,
      "power": 2724,
      "zero": 2725,
      "##land": 2726,
      "##ior": 2727,
      "##con": 2728,
      "##eed": 2729,
      "##yle": 2730,
      "##sion": 2731,
      "##tf": 2732,
      "##inger": 2733,
      "meth": 2734,
      "##antic": 2735,
      "##rious": 2736,
      "##ceed": 2737,
      "pog": 2738,
      "teeth": 2739,
      "spl": 2740,
      "intention": 2741,
      "closed": 2742,
      "offic": 2743,
      "##ipul": 2744,
      "##asion": 2745,
      "prevent": 2746,
      "blocked": 2747,
      "content": 2748,
      "recomm": 2749,
      "flu": 2750,
      "impact": 2751,
      "communic": 2752,
      "enjoying": 2753,
      "twitpic": 2754,
      "cutting": 2755,
      "##ointed": 2756,
      "##phone": 2757,
      "closer": 2758,
      "ignore": 2759,
      "coward": 2760,
      "embarrassed": 2761,
      "building": 2762,
      "essent": 2763,
      "ashamed": 2764,
      "floor": 2765,
      "achieve": 2766,
      "racing": 2767,
      "slept": 2768,
      "bt": 2769,
      "gut": 2770,
      "hr": 2771,
      "lad": 2772,
      "mal": 2773,
      "mass": 2774,
      "net": 2775,
      "serv": 2776,
      "tv": 2777,
      "##cra": 2778,
      "##back": 2779,
      "##ral": 2780,
      "##sa": 2781,
      "##te": 2782,
      "thur": 2783,
      "threat": 2784,
      "third": 2785,
      "##ening": 2786,
      "##lex": 2787,
      "neck": 2788,
      "load": 2789,
      "chick": 2790,
      "##ili": 2791,
      "##ilit": 2792,
      "plat": 2793,
      "willing": 2794,
      "##andon": 2795,
      "overcome": 2796,
      "manipul": 2797,
      "strange": 2798,
      "acting": 2799,
      "realised": 2800,
      "existing": 2801,
      "skill": 2802,
      "##ified": 2803,
      "insurance": 2804,
      "deeper": 2805,
      "caught": 2806,
      "spending": 2807,
      "clothes": 2808,
      "##ground": 2809,
      "graduate": 2810,
      "addiction": 2811,
      "filled": 2812,
      "##ength": 2813,
      "appearance": 2814,
      "potential": 2815,
      "##mpathy": 2816,
      "victim": 2817,
      "lmao": 2818,
      "pogba": 2819,
      "service": 2820,
      "bri": 2821,
      "bra": 2822,
      "bag": 2823,
      "cross": 2824,
      "gay": 2825,
      "gas": 2826,
      "hid": 2827,
      "pour": 2828,
      "sme": 2829,
      "site": 2830,
      "##ole": 2831,
      "##oken": 2832,
      "##ray": 2833,
      "##for": 2834,
      "habit": 2835,
      "##uter": 2836,
      "insec": 2837,
      "##ison": 2838,
      "##key": 2839,
      "##ics": 2840,
      "stat": 2841,
      "##itude": 2842,
      "##idge": 2843,
      "anytime": 2844,
      "abandon": 2845,
      "##roll": 2846,
      "rece": 2847,
      "deb": 2848,
      "##ateful": 2849,
      "##iling": 2850,
      "unha": 2851,
      "monday": 2852,
      "previ": 2853,
      "shoulder": 2854,
      "watched": 2855,
      "law": 2856,
      "repl": 2857,
      "married": 2858,
      "paying": 2859,
      "reached": 2860,
      "##aaaa": 2861,
      "connection": 2862,
      "concerned": 2863,
      "bott": 2864,
      "occasion": 2865,
      "specific": 2866,
      "context": 2867,
      "##ield": 2868,
      "education": 2869,
      "ssri": 2870,
      "customer": 2871,
      "aspect": 2872,
      "ball": 2873,
      "fm": 2874,
      "hill": 2875,
      "jan": 2876,
      "jeal": 2877,
      "ly": 2878,
      "meal": 2879,
      "rate": 2880,
      "sep": 2881,
      "void": 2882,
      "wow": 2883,
      "wtf": 2884,
      "yr": 2885,
      "##oci": 2886,
      "##ren": 2887,
      "##nel": 2888,
      "##su": 2889,
      "##kk": 2890,
      "##stance": 2891,
      "havent": 2892,
      "mech": 2893,
      "##icle": 2894,
      "onto": 2895,
      "goog": 2896,
      "abused": 2897,
      "dece": 2898,
      "musc": 2899,
      "comb": 2900,
      "background": 2901,
      "intr": 2902,
      "perman": 2903,
      "expl": 2904,
      "##erior": 2905,
      "written": 2906,
      "dealt": 2907,
      "crap": 2908,
      "cris": 2909,
      "snap": 2910,
      "absolute": 2911,
      "desperate": 2912,
      "began": 2913,
      "pushed": 2914,
      "draw": 2915,
      "fresh": 2916,
      "creep": 2917,
      "program": 2918,
      "dropped": 2919,
      "autism": 2920,
      "##uuuu": 2921,
      "police": 2922,
      "cripp": 2923,
      "ahead": 2924,
      "organ": 2925,
      "favorite": 2926,
      "insomnia": 2927,
      "mouth": 2928,
      "thursday": 2929,
      "jealous": 2930,
      "mechan": 2931,
      "90": 2932,
      "cous": 2933,
      "dent": 2934,
      "hat": 2935,
      "link": 2936,
      "lunch": 2937,
      "odd": 2938,
      "rap": 2939,
      "##ien": 2940,
      "##ec": 2941,
      "##ove": 2942,
      "##dy": 2943,
      "##bl": 2944,
      "##wise": 2945,
      "##gu": 2946,
      "##gin": 2947,
      "##gue": 2948,
      "##ton": 2949,
      "##zzy": 2950,
      "##arm": 2951,
      "stage": 2952,
      "wit": 2953,
      "neigh": 2954,
      "##aus": 2955,
      "##irt": 2956,
      "evening": 2957,
      "unl": 2958,
      "profession": 2959,
      "speaking": 2960,
      "thru": 2961,
      "qual": 2962,
      "wishing": 2963,
      "across": 2964,
      "awes": 2965,
      "road": 2966,
      "posted": 2967,
      "pull": 2968,
      "flash": 2969,
      "rule": 2970,
      "assign": 2971,
      "easily": 2972,
      "typing": 2973,
      "mainly": 2974,
      "manager": 2975,
      "create": 2976,
      "ignored": 2977,
      "value": 2978,
      "judge": 2979,
      "repeat": 2980,
      "interaction": 2981,
      "slightly": 2982,
      "viol": 2983,
      "religion": 2984,
      "sneaker": 2985,
      "cousin": 2986,
      "neighb": 2987,
      "awesome": 2988,
      "hated": 2989,
      "mat": 2990,
      "mild": 2991,
      "ult": 2992,
      "wed": 2993,
      "##ipped": 2994,
      "##ox": 2995,
      "##mi": 2996,
      "##rect": 2997,
      "##isf": 2998,
      "##ley": 2999,
      "##ssed": 3000,
      "##itable": 3001,
      "reass": 3002,
      "##ressed": 3003,
      "##oof": 3004,
      "##url": 3005,
      "depressing": 3006,
      "prov": 3007,
      "col": 3008,
      "club": 3009,
      "pregn": 3010,
      "grateful": 3011,
      "realise": 3012,
      "computer": 3013,
      "blah": 3014,
      "access": 3015,
      "letter": 3016,
      "planned": 3017,
      "gift": 3018,
      "closest": 3019,
      "trash": 3020,
      "possibly": 3021,
      "deserves": 3022,
      "##hole": 3023,
      "pushing": 3024,
      "disappointment": 3025,
      "accepted": 3026,
      "paid": 3027,
      "forgotten": 3028,
      "kicked": 3029,
      "turning": 3030,
      "bottle": 3031,
      "overdose": 3032,
      "successful": 3033,
      "bleed": 3034,
      "paranoid": 3035,
      "title": 3036,
      "romantic": 3037,
      "method": 3038,
      "essentially": 3039,
      "december": 3040,
      "muscle": 3041,
      "bright": 3042,
      "ce": 3043,
      "dy": 3044,
      "grew": 3045,
      "il": 3046,
      "lar": 3047,
      "nause": 3048,
      "ride": 3049,
      "sib": 3050,
      "##ler": 3051,
      "##ique": 3052,
      "##ev": 3053,
      "##dra": 3054,
      "##bc": 3055,
      "##bia": 3056,
      "##ario": 3057,
      "isnt": 3058,
      "reaction": 3059,
      "sund": 3060,
      "##iring": 3061,
      "##gestion": 3062,
      "chron": 3063,
      "saving": 3064,
      "tex": 3065,
      "spoke": 3066,
      "bridge": 3067,
      "otherwise": 3068,
      "track": 3069,
      "arri": 3070,
      "attract": 3071,
      "strength": 3072,
      "apps": 3073,
      "appro": 3074,
      "awww": 3075,
      "suppose": 3076,
      "belief": 3077,
      "avail": 3078,
      "walked": 3079,
      "checked": 3080,
      "misery": 3081,
      "##rupt": 3082,
      "annoyed": 3083,
      "frustration": 3084,
      "overthinking": 3085,
      "heavy": 3086,
      "destroyed": 3087,
      "financially": 3088,
      "fatigue": 3089,
      "unhappy": 3090,
      "crisis": 3091,
      "crippling": 3092,
      "mechanism": 3093,
      "sibling": 3094,
      "sunday": 3095,
      "bp": 3096,
      "dear": 3097,
      "fan": 3098,
      "field": 3099,
      "gf": 3100,
      "ger": 3101,
      "hyp": 3102,
      "lap": 3103,
      "od": 3104,
      "ou": 3105,
      "pun": 3106,
      "sore": 3107,
      "yay": 3108,
      "##bal": 3109,
      "##xx": 3110,
      "##ki": 3111,
      "##ony": 3112,
      "##atively": 3113,
      "##east": 3114,
      "stable": 3115,
      "fore": 3116,
      "##ching": 3117,
      "##ril": 3118,
      "shot": 3119,
      "##aul": 3120,
      "cla": 3121,
      "training": 3122,
      "active": 3123,
      "messed": 3124,
      "severely": 3125,
      "cru": 3126,
      "disappointed": 3127,
      "changing": 3128,
      "following": 3129,
      "total": 3130,
      "refer": 3131,
      "mentioned": 3132,
      "convince": 3133,
      "suggestion": 3134,
      "private": 3135,
      "pretend": 3136,
      "lady": 3137,
      "bottom": 3138,
      "intrusive": 3139,
      "cele": 3140,
      "email": 3141,
      "fol": 3142,
      "gain": 3143,
      "hating": 3144,
      "lu": 3145,
      "nic": 3146,
      "sal": 3147,
      "tun": 3148,
      "##he": 3149,
      "##wal": 3150,
      "##uary": 3151,
      "##oun": 3152,
      "##ana": 3153,
      "instant": 3154,
      "white": 3155,
      "##verage": 3156,
      "soo": 3157,
      "withdra": 3158,
      "above": 3159,
      "ate": 3160,
      "among": 3161,
      "everywhere": 3162,
      "whats": 3163,
      "loc": 3164,
      "divor": 3165,
      "seeking": 3166,
      "herself": 3167,
      "procra": 3168,
      "##aps": 3169,
      "brush": 3170,
      "##soci": 3171,
      "less": 3172,
      "##icked": 3173,
      "drown": 3174,
      "disability": 3175,
      "dissoci": 3176,
      "prefer": 3177,
      "##male": 3178,
      "activity": 3179,
      "compet": 3180,
      "box": 3181,
      "mentalhealth": 3182,
      "pulled": 3183,
      "##well": 3184,
      "higher": 3185,
      "psychosis": 3186,
      "research": 3187,
      "resource": 3188,
      "##ledge": 3189,
      "snow": 3190,
      "info": 3191,
      "texted": 3192,
      "distance": 3193,
      "frequ": 3194,
      "curious": 3195,
      "sweat": 3196,
      "perfectly": 3197,
      "counsel": 3198,
      "sensitive": 3199,
      "overthink": 3200,
      "hungry": 3201,
      "tort": 3202,
      "scenario": 3203,
      "disgusting": 3204,
      "tempor": 3205,
      "narc": 3206,
      "ticket": 3207,
      "smell": 3208,
      "january": 3209,
      "professional": 3210,
      "assignment": 3211,
      "provide": 3212,
      "nauseous": 3213,
      "procrast": 3214,
      "cure": 3215,
      "dry": 3216,
      "finger": 3217,
      "gro": 3218,
      "ju": 3219,
      "lab": 3220,
      "math": 3221,
      "naus": 3222,
      "pit": 3223,
      "rot": 3224,
      "##iver": 3225,
      "##ived": 3226,
      "##dr": 3227,
      "##dom": 3228,
      "##yro": 3229,
      "##yond": 3230,
      "##ale": 3231,
      "##now": 3232,
      "##ons": 3233,
      "##atic": 3234,
      "beyond": 3235,
      "liking": 3236,
      "##vert": 3237,
      "##icul": 3238,
      "wash": 3239,
      "dos": 3240,
      "##anted": 3241,
      "webs": 3242,
      "##rol": 3243,
      "##urb": 3244,
      "depend": 3245,
      "fav": 3246,
      "image": 3247,
      "helpful": 3248,
      "overall": 3249,
      "##ished": 3250,
      "scar": 3251,
      "park": 3252,
      "block": 3253,
      "ide": 3254,
      "awh": 3255,
      "aww": 3256,
      "april": 3257,
      "cheated": 3258,
      "burnt": 3259,
      "stronger": 3260,
      "##ption": 3261,
      "motivated": 3262,
      "irl": 3263,
      "triggered": 3264,
      "bothered": 3265,
      "correct": 3266,
      "satisf": 3267,
      "embarrassing": 3268,
      "suggest": 3269,
      "increase": 3270,
      "elect": 3271,
      "direction": 3272,
      "isolated": 3273,
      "relief": 3274,
      "information": 3275,
      "patient": 3276,
      "behavior": 3277,
      "routine": 3278,
      "fantas": 3279,
      "btw": 3280,
      "separ": 3281,
      "nausea": 3282,
      "website": 3283,
      "aunt": 3284,
      "average": 3285,
      "fired": 3286,
      "punch": 3287,
      "rd": 3288,
      "sen": 3289,
      "sake": 3290,
      "sand": 3291,
      "sigh": 3292,
      "tb": 3293,
      "ten": 3294,
      "tast": 3295,
      "tim": 3296,
      "vol": 3297,
      "##hn": 3298,
      "##haps": 3299,
      "##pe": 3300,
      "##xy": 3301,
      "##reed": 3302,
      "##verted": 3303,
      "##arant": 3304,
      "stick": 3305,
      "doll": 3306,
      "female": 3307,
      "neither": 3308,
      "weather": 3309,
      "##irely": 3310,
      "chem": 3311,
      "distant": 3312,
      "##iment": 3313,
      "worker": 3314,
      "agree": 3315,
      "perhaps": 3316,
      "talent": 3317,
      "endless": 3318,
      "expensive": 3319,
      "idi": 3320,
      "ident": 3321,
      "phase": 3322,
      "sadly": 3323,
      "decade": 3324,
      "advance": 3325,
      "survi": 3326,
      "traffic": 3327,
      "border": 3328,
      "roommate": 3329,
      "facebook": 3330,
      "entirely": 3331,
      "commitment": 3332,
      "##yyyy": 3333,
      "figured": 3334,
      "clearly": 3335,
      "refuse": 3336,
      "shoot": 3337,
      "ruining": 3338,
      "grief": 3339,
      "tinyurl": 3340,
      "vacation": 3341,
      "##ificant": 3342,
      "circ": 3343,
      "reduce": 3344,
      "split": 3345,
      "chronic": 3346,
      "bal": 3347,
      "bum": 3348,
      "bank": 3349,
      "equ": 3350,
      "iphone": 3351,
      "jon": 3352,
      "led": 3353,
      "mel": 3354,
      "mour": 3355,
      "ori": 3356,
      "ppl": 3357,
      "pissed": 3358,
      "squ": 3359,
      "wel": 3360,
      "##light": 3361,
      "##iff": 3362,
      "##cel": 3363,
      "##hen": 3364,
      "##hill": 3365,
      "##ky": 3366,
      "##ka": 3367,
      "##inating": 3368,
      "##eric": 3369,
      "lif": 3370,
      "americ": 3371,
      "##ooking": 3372,
      "##uesday": 3373,
      "happier": 3374,
      "lasted": 3375,
      "throwing": 3376,
      "version": 3377,
      "disco": 3378,
      "attend": 3379,
      "attach": 3380,
      "relative": 3381,
      "compared": 3382,
      "blow": 3383,
      "blue": 3384,
      "contrib": 3385,
      "bully": 3386,
      "recent": 3387,
      "understood": 3388,
      "flat": 3389,
      "socially": 3390,
      "##acter": 3391,
      "skip": 3392,
      "assum": 3393,
      "asshole": 3394,
      "march": 3395,
      "##reddit": 3396,
      "subreddit": 3397,
      "continu": 3398,
      "uncle": 3399,
      "considered": 3400,
      "prim": 3401,
      "picked": 3402,
      "article": 3403,
      "valid": 3404,
      "accidentally": 3405,
      "character": 3406,
      "rejected": 3407,
      "based": 3408,
      "homeless": 3409,
      "million": 3410,
      "responsibility": 3411,
      "insecure": 3412,
      "google": 3413,
      "available": 3414,
      "narciss": 3415,
      "ideation": 3416,
      "awhile": 3417,
      "bless": 3418,
      "cough": 3419,
      "dun": 3420,
      "dude": 3421,
      "six": 3422,
      "tuesday": 3423,
      "vision": 3424,
      "##lu": 3425,
      "##lict": 3426,
      "##ipping": 3427,
      "##cl": 3428,
      "##af": 3429,
      "##pro": 3430,
      "##zing": 3431,
      "##eline": 3432,
      "beating": 3433,
      "##reet": 3434,
      "##lect": 3435,
      "##etite": 3436,
      "##cket": 3437,
      "abs": 3438,
      "##earable": 3439,
      "alright": 3440,
      "##iron": 3441,
      "##cture": 3442,
      "requ": 3443,
      "upon": 3444,
      "chill": 3445,
      "christ": 3446,
      "dizzy": 3447,
      "camp": 3448,
      "agreed": 3449,
      "whoever": 3450,
      "argh": 3451,
      "thread": 3452,
      "diss": 3453,
      "##mage": 3454,
      "personally": 3455,
      "hardest": 3456,
      "appl": 3457,
      "record": 3458,
      "role": 3459,
      "emerg": 3460,
      "bedroom": 3461,
      "plane": 3462,
      "planet": 3463,
      "##acy": 3464,
      "##acle": 3465,
      "bigger": 3466,
      "rush": 3467,
      "forgive": 3468,
      "travel": 3469,
      "passing": 3470,
      "opened": 3471,
      "damage": 3472,
      "swear": 3473,
      "committed": 3474,
      "hotel": 3475,
      "hotline": 3476,
      "laying": 3477,
      "succeed": 3478,
      "nature": 3479,
      "concern": 3480,
      "occur": 3481,
      "repeated": 3482,
      "grandma": 3483,
      "regularly": 3484,
      "screwed": 3485,
      "remove": 3486,
      "unbearable": 3487,
      "surprised": 3488,
      "platform": 3489,
      "permanent": 3490,
      "folk": 3491,
      "instantly": 3492,
      "idiot": 3493,
      "bout": 3494,
      "band": 3495,
      "cud": 3496,
      "cook": 3497,
      "dish": 3498,
      "gad": 3499,
      "gho": 3500,
      "hook": 3501,
      "kiss": 3502,
      "land": 3503,
      "mach": 3504,
      "nd": 3505,
      "rum": 3506,
      "rude": 3507,
      "sci": 3508,
      "tl": 3509,
      "tar": 3510,
      "ward": 3511,
      "yo": 3512,
      "##cast": 3513,
      "##but": 3514,
      "##rant": 3515,
      "##some": 3516,
      "##pa": 3517,
      "##top": 3518,
      "##ker": 3519,
      "thous": 3520,
      "##ern": 3521,
      "##enge": 3522,
      "##eness": 3523,
      "##the": 3524,
      "begging": 3525,
      "italy": 3526,
      "##omb": 3527,
      "inj": 3528,
      "stab": 3529,
      "sober": 3530,
      "##enty": 3531,
      "dozen": 3532,
      "wors": 3533,
      "react": 3534,
      "alarm": 3535,
      "chall": 3536,
      "##ilt": 3537,
      "imm": 3538,
      "##imate": 3539,
      "uns": 3540,
      "client": 3541,
      "perform": 3542,
      "##mbling": 3543,
      "scre": 3544,
      "##agram": 3545,
      "grown": 3546,
      "##aming": 3547,
      "appetite": 3548,
      "prot": 3549,
      "##ugged": 3550,
      "minor": 3551,
      "classmate": 3552,
      "tax": 3553,
      "object": 3554,
      "##quence": 3555,
      "wonderful": 3556,
      "assault": 3557,
      "lower": 3558,
      "possibility": 3559,
      "desper": 3560,
      "iron": 3561,
      "expected": 3562,
      "bothering": 3563,
      "spirit": 3564,
      "discu": 3565,
      "randomly": 3566,
      "affected": 3567,
      "functioning": 3568,
      "significant": 3569,
      "ache": 3570,
      "promised": 3571,
      "frustrated": 3572,
      "polit": 3573,
      "scratch": 3574,
      "apologize": 3575,
      "unemploy": 3576,
      "increased": 3577,
      "specifically": 3578,
      "benef": 3579,
      "heavily": 3580,
      "screaming": 3581,
      "minimum": 3582,
      "environ": 3583,
      "coworkers": 3584,
      "recommend": 3585,
      "previous": 3586,
      "texting": 3587,
      "laptop": 3588,
      "senior": 3589,
      "emergency": 3590,
      "thousand": 3591,
      "dar": 3592,
      "easter": 3593,
      "kal": 3594,
      "kitch": 3595,
      "mag": 3596,
      "nap": 3597,
      "pc": 3598,
      "paul": 3599,
      "ring": 3600,
      "rar": 3601,
      "rage": 3602,
      "san": 3603,
      "wre": 3604,
      "xan": 3605,
      "##car": 3606,
      "##bid": 3607,
      "##bage": 3608,
      "##rin": 3609,
      "##ris": 3610,
      "##rict": 3611,
      "##fly": 3612,
      "##nn": 3613,
      "##za": 3614,
      "##zac": 3615,
      "##inary": 3616,
      "##eday": 3617,
      "lic": 3618,
      "limit": 3619,
      "soft": 3620,
      "wave": 3621,
      "##che": 3622,
      "##riage": 3623,
      "review": 3624,
      "##urday": 3625,
      "##urity": 3626,
      "sell": 3627,
      "facing": 3628,
      "choc": 3629,
      "##raph": 3630,
      "diet": 3631,
      "##imistic": 3632,
      "provid": 3633,
      "prozac": 3634,
      "sport": 3635,
      "join": 3636,
      "argu": 3637,
      "##using": 3638,
      "verge": 3639,
      "monster": 3640,
      "hardly": 3641,
      "leaf": 3642,
      "##gged": 3643,
      "meditation": 3644,
      "##itement": 3645,
      "##ivan": 3646,
      "price": 3647,
      "heartbr": 3648,
      "sympathy": 3649,
      "incident": 3650,
      "conscious": 3651,
      "instagram": 3652,
      "basis": 3653,
      "added": 3654,
      "bringing": 3655,
      "explained": 3656,
      "##matic": 3657,
      "luckily": 3658,
      "prior": 3659,
      "freed": 3660,
      "##spective": 3661,
      "prescription": 3662,
      "promise": 3663,
      "frustrating": 3664,
      "capable": 3665,
      "presentation": 3666,
      "direct": 3667,
      "##easant": 3668,
      "regardless": 3669,
      "devast": 3670,
      "evil": 3671,
      "delete": 3672,
      "particularly": 3673,
      "consistently": 3674,
      "productive": 3675,
      "buspar": 3676,
      "encourage": 3677,
      "necessarily": 3678,
      "hiding": 3679,
      "neighbor": 3680,
      "divorce": 3681,
      "tbh": 3682,
      "dollar": 3683,
      "screen": 3684,
      "environment": 3685,
      "kitchen": 3686,
      "rarely": 3687,
      "0k": 3688,
      "cute": 3689,
      "dm": 3690,
      "fog": 3691,
      "kar": 3692,
      "mil": 3693,
      "mac": 3694,
      "mix": 3695,
      "ni": 3696,
      "ny": 3697,
      "ner": 3698,
      "nur": 3699,
      "pin": 3700,
      "pound": 3701,
      "patter": 3702,
      "round": 3703,
      "tu": 3704,
      "tum": 3705,
      "via": 3706,
      "##iving": 3707,
      "##cept": 3708,
      "##old": 3709,
      "##do": 3710,
      "##da": 3711,
      "##rain": 3712,
      "##wa": 3713,
      "##uk": 3714,
      "##und": 3715,
      "##vis": 3716,
      "##ko": 3717,
      "##inho": 3718,
      "##att": 3719,
      "hall": 3720,
      "inev": 3721,
      "##iser": 3722,
      "##lement": 3723,
      "lim": 3724,
      "##icious": 3725,
      "street": 3726,
      "nove": 3727,
      "##ury": 3728,
      "camer": 3729,
      "##imately": 3730,
      "helpless": 3731,
      "##apse": 3732,
      "perspective": 3733,
      "sink": 3734,
      "##ager": 3735,
      "actively": 3736,
      "download": 3737,
      "##nesday": 3738,
      "applic": 3739,
      "buying": 3740,
      "someday": 3741,
      "##aced": 3742,
      "##allow": 3743,
      "showed": 3744,
      "sucked": 3745,
      "crit": 3746,
      "surr": 3747,
      "secret": 3748,
      "##ension": 3749,
      "becomes": 3750,
      "##ology": 3751,
      "deeply": 3752,
      "opening": 3753,
      "burning": 3754,
      "drama": 3755,
      "setting": 3756,
      "retard": 3757,
      "internship": 3758,
      "invited": 3759,
      "generally": 3760,
      "glass": 3761,
      "sweating": 3762,
      "corner": 3763,
      "saturday": 3764,
      "sending": 3765,
      "staring": 3766,
      "desk": 3767,
      "crime": 3768,
      "contempl": 3769,
      "silly": 3770,
      "vacc": 3771,
      "employee": 3772,
      "involved": 3773,
      "journey": 3774,
      "profile": 3775,
      "garbage": 3776,
      "natural": 3777,
      "massive": 3778,
      "chicken": 3779,
      "debilit": 3780,
      "witness": 3781,
      "wednesday": 3782,
      "pregnant": 3783,
      "lesson": 3784,
      "discover": 3785,
      "benefit": 3786,
      "pattern": 3787,
      "ack": 3788,
      "cell": 3789,
      "cooking": 3790,
      "fal": 3791,
      "gross": 3792,
      "june": 3793,
      "mode": 3794,
      "oct": 3795,
      "pal": 3796,
      "pity": 3797,
      "rich": 3798,
      "roof": 3799,
      "sert": 3800,
      "tld": 3801,
      "##hy": 3802,
      "##oin": 3803,
      "##rea": 3804,
      "##ama": 3805,
      "##nal": 3806,
      "##gress": 3807,
      "##ux": 3808,
      "##sis": 3809,
      "##port": 3810,
      "##00": 3811,
      "threw": 3812,
      "##ering": 3813,
      "##ingly": 3814,
      "anim": 3815,
      "##ator": 3816,
      "##reh": 3817,
      "inn": 3818,
      "infect": 3819,
      "##verse": 3820,
      "feb": 3821,
      "##alid": 3822,
      "shak": 3823,
      "ups": 3824,
      "conse": 3825,
      "loop": 3826,
      "chore": 3827,
      "shell": 3828,
      "cas": 3829,
      "##asty": 3830,
      "unw": 3831,
      "unhealth": 3832,
      "saf": 3833,
      "aggress": 3834,
      "tool": 3835,
      "speed": 3836,
      "intell": 3837,
      "coach": 3838,
      "betray": 3839,
      "##olate": 3840,
      "sleepy": 3841,
      "attitude": 3842,
      "downhill": 3843,
      "blank": 3844,
      "apply": 3845,
      "roll": 3846,
      "thankfully": 3847,
      "understands": 3848,
      "played": 3849,
      "curse": 3850,
      "conflict": 3851,
      "##cery": 3852,
      "##hhh": 3853,
      "defined": 3854,
      "##hobia": 3855,
      "checking": 3856,
      "reaching": 3857,
      "brings": 3858,
      "invalid": 3859,
      "purs": 3860,
      "created": 3861,
      "warning": 3862,
      "transp": 3863,
      "destru": 3864,
      "hyd": 3865,
      "meaningless": 3866,
      "judging": 3867,
      "sensation": 3868,
      "concl": 3869,
      "##easure": 3870,
      "regarding": 3871,
      "fairly": 3872,
      "financial": 3873,
      "circle": 3874,
      "deleted": 3875,
      "clinically": 3876,
      "obsess": 3877,
      "shopping": 3878,
      "##going": 3879,
      "vomit": 3880,
      "communicate": 3881,
      "##raline": 3882,
      "dentist": 3883,
      "large": 3884,
      "german": 3885,
      "claim": 3886,
      "tunnel": 3887,
      "withdrawal": 3888,
      "circum": 3889,
      "mourinho": 3890,
      "welcome": 3891,
      "xanax": 3892,
      "chocolate": 3893,
      "november": 3894,
      "acknow": 3895,
      "tldr": 3896,
      "batter": 3897,
      "cult": 3898,
      "dress": 3899,
      "etern": 3900,
      "fain": 3901,
      "ge": 3902,
      "hun": 3903,
      "kut": 3904,
      "nasty": 3905,
      "picking": 3906,
      "penn": 3907,
      "tiring": 3908,
      "user": 3909,
      "var": 3910,
      "wise": 3911,
      "##like": 3912,
      "##oh": 3913,
      "##rus": 3914,
      "##ront": 3915,
      "##fl": 3916,
      "##fast": 3917,
      "##sense": 3918,
      "##mic": 3919,
      "##xa": 3920,
      "toll": 3921,
      "##oning": 3922,
      "itch": 3923,
      "##arp": 3924,
      "sold": 3925,
      "doom": 3926,
      "##ched": 3927,
      "sharing": 3928,
      "cance": 3929,
      "abt": 3930,
      "ativan": 3931,
      "neu": 3932,
      "altern": 3933,
      "##irm": 3934,
      "knife": 3935,
      "##ndred": 3936,
      "##ender": 3937,
      "cho": 3938,
      "chea": 3939,
      "fulf": 3940,
      "dig": 3941,
      "plant": 3942,
      "clock": 3943,
      "couldnt": 3944,
      "bye": 3945,
      "nail": 3946,
      "medi": 3947,
      "acade": 3948,
      "built": 3949,
      "mindset": 3950,
      "panicking": 3951,
      "flood": 3952,
      "##ogn": 3953,
      "differently": 3954,
      "cheer": 3955,
      "obl": 3956,
      "restrict": 3957,
      "enjoyed": 3958,
      "associ": 3959,
      "waited": 3960,
      "laund": 3961,
      "despair": 3962,
      "##hold": 3963,
      "##bbing": 3964,
      "hundred": 3965,
      "solve": 3966,
      "solid": 3967,
      "delay": 3968,
      "invite": 3969,
      "engine": 3970,
      "standing": 3971,
      "raised": 3972,
      "warm": 3973,
      "##grade": 3974,
      "majority": 3975,
      "grie": 3976,
      "essay": 3977,
      "irrational": 3978,
      "practice": 3979,
      "silence": 3980,
      "teenager": 3981,
      "reminded": 3982,
      "rejection": 3983,
      "yelled": 3984,
      "technique": 3985,
      "dangerous": 3986,
      "abandoned": 3987,
      "hatred": 3988,
      "counselor": 3989,
      "grocery": 3990,
      "dosage": 3991,
      "favour": 3992,
      "taste": 3993,
      "applied": 3994,
      "argument": 3995,
      "freedom": 3996,
      "debilitating": 3997,
      "animal": 3998,
      "hydro": 3999,
      "circumstance": 4000,
      "kutner": 4001,
      "ai": 4002,
      "cbt": 4003,
      "dys": 4004,
      "ditch": 4005,
      "era": 4006,
      "fool": 4007,
      "gig": 4008,
      "glo": 4009,
      "pul": 4010,
      "porn": 4011,
      "race": 4012,
      "rare": 4013,
      "rope": 4014,
      "sar": 4015,
      "vir": 4016,
      "wet": 4017,
      "ye": 4018,
      "##ience": 4019,
      "##care": 4020,
      "##oll": 4021,
      "##ober": 4022,
      "##ding": 4023,
      "##ya": 4024,
      "##rel": 4025,
      "##aff": 4026,
      "##face": 4027,
      "##wr": 4028,
      "##mas": 4029,
      "##inated": 4030,
      "##sting": 4031,
      "inner": 4032,
      "indu": 4033,
      "shad": 4034,
      "shock": 4035,
      "##opram": 4036,
      "cancel": 4037,
      "##irone": 4038,
      "noose": 4039,
      "noise": 4040,
      "ambit": 4041,
      "whatso": 4042,
      "fac": 4043,
      "factor": 4044,
      "faith": 4045,
      "chose": 4046,
      "comfor": 4047,
      "##astic": 4048,
      "workout": 4049,
      "saved": 4050,
      "spo": 4051,
      "clue": 4052,
      "cloud": 4053,
      "pers": 4054,
      "##ortion": 4055,
      "##mpting": 4056,
      "afterwards": 4057,
      "afterno": 4058,
      "drain": 4059,
      "drank": 4060,
      "##asm": 4061,
      "aside": 4062,
      "complic": 4063,
      "##amine": 4064,
      "recogn": 4065,
      "root": 4066,
      "##ames": 4067,
      "puss": 4068,
      "flir": 4069,
      "asks": 4070,
      "breakup": 4071,
      "breakfast": 4072,
      "##ondon": 4073,
      "psychotic": 4074,
      "apath": 4075,
      "messaged": 4076,
      "##gery": 4077,
      "consum": 4078,
      "surgery": 4079,
      "##italopram": 4080,
      "lowest": 4081,
      "##apped": 4082,
      "attempting": 4083,
      "shortness": 4084,
      "internally": 4085,
      "faster": 4086,
      "expecting": 4087,
      "continues": 4088,
      "leading": 4089,
      "manageable": 4090,
      "psychiatric": 4091,
      "graduating": 4092,
      "addicted": 4093,
      "benz": 4094,
      "isolation": 4095,
      "irrit": 4096,
      "wearing": 4097,
      "scene": 4098,
      "prepare": 4099,
      "utter": 4100,
      "film": 4101,
      "searching": 4102,
      "locked": 4103,
      "buspirone": 4104,
      "naturally": 4105,
      "officially": 4106,
      "manipulative": 4107,
      "reassurance": 4108,
      "bleeding": 4109,
      "approach": 4110,
      "bpd": 4111,
      "cruel": 4112,
      "frequent": 4113,
      "surviving": 4114,
      "##butrin": 4115,
      "desperately": 4116,
      "limited": 4117,
      "application": 4118,
      "sertraline": 4119,
      "innoc": 4120,
      "consequence": 4121,
      "unhealthy": 4122,
      "intellig": 4123,
      "conclusion": 4124,
      "fulfill": 4125,
      "laundry": 4126,
      "favourite": 4127,
      "whatsoever": 4128,
      "afternoon": 4129,
      "asp": 4130,
      "bone": 4131,
      "bound": 4132,
      "beach": 4133,
      "creat": 4134,
      "dv": 4135,
      "dated": 4136,
      "dang": 4137,
      "double": 4138,
      "ell": 4139,
      "ease": 4140,
      "econ": 4141,
      "ff": 4142,
      "fro": 4143,
      "fish": 4144,
      "flying": 4145,
      "ko": 4146,
      "kicking": 4147,
      "london": 4148,
      "mr": 4149,
      "master": 4150,
      "mask": 4151,
      "nick": 4152,
      "pic": 4153,
      "pure": 4154,
      "rip": 4155,
      "sept": 4156,
      "tf": 4157,
      "tea": 4158,
      "tik": 4159,
      "vit": 4160,
      "wrist": 4161,
      "##la": 4162,
      "##lin": 4163,
      "##ca": 4164,
      "##hr": 4165,
      "##nc": 4166,
      "##vo": 4167,
      "##vely": 4168,
      "##xual": 4169,
      "##kin": 4170,
      "##eral": 4171,
      "##erry": 4172,
      "tour": 4173,
      "##onne": 4174,
      "##onym": 4175,
      "##anced": 4176,
      "##stic": 4177,
      "##stand": 4178,
      "##style": 4179,
      "beer": 4180,
      "lied": 4181,
      "whil": 4182,
      "##eter": 4183,
      "stair": 4184,
      "fort": 4185,
      "forcing": 4186,
      "wiki": 4187,
      "##its": 4188,
      "##itis": 4189,
      "##ida": 4190,
      "##entr": 4191,
      "shape": 4192,
      "atm": 4193,
      "suff": 4194,
      "##ada": 4195,
      "##cting": 4196,
      "knee": 4197,
      "##urch": 4198,
      "defe": 4199,
      "pls": 4200,
      "plenty": 4201,
      "held": 4202,
      "##uls": 4203,
      "tooth": 4204,
      "##sonal": 4205,
      "spoken": 4206,
      "click": 4207,
      "needle": 4208,
      "brown": 4209,
      "manic": 4210,
      "thrown": 4211,
      "nah": 4212,
      "disre": 4213,
      "relatively": 4214,
      "wellbutrin": 4215,
      "complex": 4216,
      "##ivid": 4217,
      "headed": 4218,
      "suppor": 4219,
      "##action": 4220,
      "##active": 4221,
      "crappy": 4222,
      "confusing": 4223,
      "instance": 4224,
      "cred": 4225,
      "crack": 4226,
      "existent": 4227,
      "eaten": 4228,
      "enjoyable": 4229,
      "resent": 4230,
      "assume": 4231,
      "marriage": 4232,
      "insight": 4233,
      "hangout": 4234,
      "sexually": 4235,
      "graduation": 4236,
      "drag": 4237,
      "internal": 4238,
      "##aaa": 4239,
      "explaining": 4240,
      "expectation": 4241,
      "triggering": 4242,
      "leader": 4243,
      "cup": 4244,
      "standard": 4245,
      "rambling": 4246,
      "emptiness": 4247,
      "closing": 4248,
      "auto": 4249,
      "noticing": 4250,
      "meaningful": 4251,
      "oppos": 4252,
      "cleaning": 4253,
      "nonsense": 4254,
      "football": 4255,
      "slightest": 4256,
      "##box": 4257,
      "dull": 4258,
      "error": 4259,
      "pretending": 4260,
      "reveal": 4261,
      "recovery": 4262,
      "##ribly": 4263,
      "employer": 4264,
      "feedback": 4265,
      "unfair": 4266,
      "journal": 4267,
      "received": 4268,
      "quality": 4269,
      "temporary": 4270,
      "chemical": 4271,
      "origin": 4272,
      "american": 4273,
      "attached": 4274,
      "continuing": 4275,
      "machine": 4276,
      "target": 4277,
      "challenge": 4278,
      "wreck": 4279,
      "license": 4280,
      "nerve": 4281,
      "##under": 4282,
      "surround": 4283,
      "false": 4284,
      "october": 4285,
      "pursue": 4286,
      "battery": 4287,
      "ambition": 4288,
      "comforting": 4289,
      "innocent": 4290,
      "whilst": 4291,
      "0am": 4292,
      "aim": 4293,
      "dut": 4294,
      "dom": 4295,
      "dance": 4296,
      "ec": 4297,
      "fck": 4298,
      "gap": 4299,
      "ip": 4300,
      "mit": 4301,
      "mur": 4302,
      "match": 4303,
      "ng": 4304,
      "pen": 4305,
      "til": 4306,
      "tree": 4307,
      "tall": 4308,
      "van": 4309,
      "##least": 4310,
      "##cu": 4311,
      "##head": 4312,
      "##ey": 4313,
      "##ember": 4314,
      "##ob": 4315,
      "##of": 4316,
      "##osing": 4317,
      "##yi": 4318,
      "##ran": 4319,
      "##rome": 4320,
      "##val": 4321,
      "##ta": 4322,
      "##zine": 4323,
      "##inate": 4324,
      "##onin": 4325,
      "##ats": 4326,
      "##ors": 4327,
      "##oring": 4328,
      "##easy": 4329,
      "inp": 4330,
      "inve": 4331,
      "limb": 4332,
      "whom": 4333,
      "##eting": 4334,
      "##icing": 4335,
      "stood": 4336,
      "staff": 4337,
      "##itar": 4338,
      "wage": 4339,
      "##lder": 4340,
      "##epend": 4341,
      "shared": 4342,
      "shocked": 4343,
      "atleast": 4344,
      "##ading": 4345,
      "##ctive": 4346,
      "nose": 4347,
      "alle": 4348,
      "allerg": 4349,
      "allergy": 4350,
      "resol": 4351,
      "##ndrome": 4352,
      "depressant": 4353,
      "exit": 4354,
      "lovely": 4355,
      "peer": 4356,
      "##raction": 4357,
      "shes": 4358,
      "fund": 4359,
      "mush": 4360,
      "cash": 4361,
      "plag": 4362,
      "unpl": 4363,
      "united": 4364,
      "sale": 4365,
      "##apine": 4366,
      "spin": 4367,
      "span": 4368,
      "spider": 4369,
      "cogn": 4370,
      "##unction": 4371,
      "brut": 4372,
      "##cial": 4373,
      "##athan": 4374,
      "##mentary": 4375,
      "schiz": 4376,
      "draining": 4377,
      "drained": 4378,
      "##aging": 4379,
      "granted": 4380,
      "blog": 4381,
      "board": 4382,
      "applying": 4383,
      "painting": 4384,
      "bud": 4385,
      "holy": 4386,
      "##ival": 4387,
      "guid": 4388,
      "rob": 4389,
      "panicked": 4390,
      "thankful": 4391,
      "syndrome": 4392,
      "##vention": 4393,
      "showing": 4394,
      "confront": 4395,
      "confirm": 4396,
      "socialize": 4397,
      "exciting": 4398,
      "##osure": 4399,
      "horrif": 4400,
      "restau": 4401,
      "passive": 4402,
      "##ological": 4403,
      "exhaustion": 4404,
      "##eee": 4405,
      "supervis": 4406,
      "david": 4407,
      "hitting": 4408,
      "humili": 4409,
      "anna": 4410,
      "antic": 4411,
      "disturb": 4412,
      "difficulty": 4413,
      "neglect": 4414,
      "uncont": 4415,
      "delusion": 4416,
      "finishing": 4417,
      "##ruary": 4418,
      "stephen": 4419,
      "quitting": 4420,
      "optimistic": 4421,
      "legal": 4422,
      "certified": 4423,
      "venting": 4424,
      "transit": 4425,
      "corp": 4426,
      "genuine": 4427,
      "focusing": 4428,
      "batt": 4429,
      "functional": 4430,
      "deterior": 4431,
      "ordered": 4432,
      "counter": 4433,
      "improved": 4434,
      "ridicul": 4435,
      "offered": 4436,
      "##olarship": 4437,
      "psychological": 4438,
      "traumatized": 4439,
      "relaxed": 4440,
      "burned": 4441,
      "concept": 4442,
      "concentr": 4443,
      "practically": 4444,
      "silent": 4445,
      "potentially": 4446,
      "returned": 4447,
      "connects": 4448,
      "admitted": 4449,
      "##ification": 4450,
      "crushed": 4451,
      "religious": 4452,
      "grey": 4453,
      "soooo": 4454,
      "improvement": 4455,
      "demand": 4456,
      "behaviour": 4457,
      "removed": 4458,
      "vomiting": 4459,
      "coworker": 4460,
      "center": 4461,
      "achievement": 4462,
      "brief": 4463,
      "attractive": 4464,
      "local": 4465,
      "drowning": 4466,
      "##rolog": 4467,
      "correctly": 4468,
      "##xyzine": 4469,
      "primary": 4470,
      "require": 4471,
      "christmas": 4472,
      "science": 4473,
      "unsure": 4474,
      "protect": 4475,
      "devastated": 4476,
      "##ception": 4477,
      "february": 4478,
      "hydroxyzine": 4479,
      "september": 4480,
      "##onnect": 4481,
      "credit": 4482,
      "allergic": 4483,
      "cognitive": 4484,
      "supervisor": 4485,
      "ave": 4486,
      "ban": 4487,
      "dorm": 4488,
      "dump": 4489,
      "eu": 4490,
      "ek": 4491,
      "eur": 4492,
      "empathy": 4493,
      "fed": 4494,
      "fly": 4495,
      "fought": 4496,
      "fade": 4497,
      "ga": 4498,
      "gp": 4499,
      "gained": 4500,
      "ice": 4501,
      "jun": 4502,
      "mc": 4503,
      "ow": 4504,
      "rely": 4505,
      "rab": 4506,
      "sight": 4507,
      "woken": 4508,
      "##lon": 4509,
      "##lim": 4510,
      "##iven": 4511,
      "##oom": 4512,
      "##dam": 4513,
      "##bro": 4514,
      "##function": 4515,
      "##watch": 4516,
      "##ware": 4517,
      "##ga": 4518,
      "##sk": 4519,
      "##vation": 4520,
      "##mon": 4521,
      "##miss": 4522,
      "##kish": 4523,
      "##inging": 4524,
      "anonym": 4525,
      "tout": 4526,
      "##orie": 4527,
      "##stop": 4528,
      "##stacle": 4529,
      "##easing": 4530,
      "init": 4531,
      "##arter": 4532,
      "stem": 4533,
      "stability": 4534,
      "##cho": 4535,
      "##cha": 4536,
      "shed": 4537,
      "alb": 4538,
      "##ooo": 4539,
      "knowledge": 4540,
      "##urk": 4541,
      "upload": 4542,
      "lifestyle": 4543,
      "exec": 4544,
      "loan": 4545,
      "height": 4546,
      "chan": 4547,
      "chap": 4548,
      "dizz": 4549,
      "plz": 4550,
      "plurk": 4551,
      "uncer": 4552,
      "mole": 4553,
      "##ulf": 4554,
      "overrea": 4555,
      "spread": 4556,
      "coz": 4557,
      "coke": 4558,
      "##unes": 4559,
      "perce": 4560,
      "needing": 4561,
      "joking": 4562,
      "trick": 4563,
      "goodnight": 4564,
      "fuckin": 4565,
      "scholarship": 4566,
      "verbal": 4567,
      "dislike": 4568,
      "scra": 4569,
      "grind": 4570,
      "quarant": 4571,
      "compl": 4572,
      "bla": 4573,
      "blown": 4574,
      "##fulness": 4575,
      "paint": 4576,
      "hire": 4577,
      "couch": 4578,
      "prison": 4579,
      "guitar": 4580,
      "funeral": 4581,
      "puke": 4582,
      "collect": 4583,
      "below": 4584,
      "player": 4585,
      "greatly": 4586,
      "remembered": 4587,
      "excl": 4588,
      "realization": 4589,
      "obstacle": 4590,
      "resort": 4591,
      "fallen": 4592,
      "insan": 4593,
      "universe": 4594,
      "deserved": 4595,
      "controlling": 4596,
      "swing": 4597,
      "swim": 4598,
      "swallow": 4599,
      "inferior": 4600,
      "calorie": 4601,
      "##www": 4602,
      "begun": 4603,
      "dramatic": 4604,
      "committing": 4605,
      "focused": 4606,
      "sentence": 4607,
      "certainly": 4608,
      "south": 4609,
      "former": 4610,
      "obvious": 4611,
      "turkish": 4612,
      "winning": 4613,
      "dreading": 4614,
      "touching": 4615,
      "irritable": 4616,
      "teenage": 4617,
      "prayer": 4618,
      "revision": 4619,
      "distracted": 4620,
      "logically": 4621,
      "demon": 4622,
      "lockdown": 4623,
      "official": 4624,
      "network": 4625,
      "brave": 4626,
      "receive": 4627,
      "combination": 4628,
      "creepy": 4629,
      "##uuuuuuuu": 4630,
      "raped": 4631,
      "ultimately": 4632,
      "hypo": 4633,
      "ouch": 4634,
      "celebr": 4635,
      "july": 4636,
      "##yroid": 4637,
      "sandra": 4638,
      "jonathan": 4639,
      "contribute": 4640,
      "dunno": 4641,
      "repeatedly": 4642,
      "discussed": 4643,
      "unemployed": 4644,
      "encouragement": 4645,
      "nurse": 4646,
      "camera": 4647,
      "safety": 4648,
      "aggressive": 4649,
      "acknowledge": 4650,
      "cancelled": 4651,
      "shadow": 4652,
      "pussy": 4653,
      "opposite": 4654,
      "##ependent": 4655,
      "uncontroll": 4656,
      "dizziness": 4657,
      "uncertain": 4658,
      "99": 4659,
      "ain": 4660,
      "ast": 4661,
      "austr": 4662,
      "base": 4663,
      "cpt": 4664,
      "dj": 4665,
      "dro": 4666,
      "dare": 4667,
      "evid": 4668,
      "fle": 4669,
      "ht": 4670,
      "hmm": 4671,
      "ig": 4672,
      "ik": 4673,
      "ki": 4674,
      "ka": 4675,
      "mic": 4676,
      "mate": 4677,
      "nope": 4678,
      "rly": 4679,
      "ram": 4680,
      "sust": 4681,
      "tap": 4682,
      "tie": 4683,
      "tube": 4684,
      "wood": 4685,
      "xxx": 4686,
      "##iable": 4687,
      "##com": 4688,
      "##coming": 4689,
      "##ht": 4690,
      "##her": 4691,
      "##ez": 4692,
      "##oia": 4693,
      "##by": 4694,
      "##yer": 4695,
      "##fa": 4696,
      "##sj": 4697,
      "##ts": 4698,
      "##taz": 4699,
      "##mark": 4700,
      "##xp": 4701,
      "##kn": 4702,
      "##kru": 4703,
      "##knight": 4704,
      "##just": 4705,
      "##inct": 4706,
      "##inge": 4707,
      "analy": 4708,
      "##oned": 4709,
      "##atory": 4710,
      "##atient": 4711,
      "##ann": 4712,
      "##ancy": 4713,
      "##eague": 4714,
      "item": 4715,
      "##omy": 4716,
      "##vey": 4717,
      "insp": 4718,
      "##arent": 4719,
      "station": 4720,
      "stock": 4721,
      "##ents": 4722,
      "##alia": 4723,
      "##epting": 4724,
      "shout": 4725,
      "shirt": 4726,
      "sharp": 4727,
      "gover": 4728,
      "suspect": 4729,
      "##ooth": 4730,
      "refu": 4731,
      "outcome": 4732,
      "seven": 4733,
      "faking": 4734,
      "hadn": 4735,
      "##imul": 4736,
      "therefore": 4737,
      "prove": 4738,
      "happiest": 4739,
      "spell": 4740,
      "intent": 4741,
      "clar": 4742,
      "perception": 4743,
      "##ciously": 4744,
      "##iev": 4745,
      "john": 4746,
      "lean": 4747,
      "lecture": 4748,
      "##space": 4749,
      "##mental": 4750,
      "verb": 4751,
      "vert": 4752,
      "sinking": 4753,
      "##agger": 4754,
      "key": 4755,
      "stream": 4756,
      "relapse": 4757,
      "##ggy": 4758,
      "blade": 4759,
      "pho": 4760,
      "contract": 4761,
      "finance": 4762,
      "heading": 4763,
      "postp": 4764,
      "##lessly": 4765,
      "##weight": 4766,
      "accord": 4767,
      "##ograph": 4768,
      "cantu": 4769,
      "slip": 4770,
      "terror": 4771,
      "impress": 4772,
      "household": 4773,
      "bitter": 4774,
      "crave": 4775,
      "##acity": 4776,
      "wasnt": 4777,
      "##ventil": 4778,
      "literal": 4779,
      "genetic": 4780,
      "rubb": 4781,
      "consume": 4782,
      "cheating": 4783,
      "install": 4784,
      "obser": 4785,
      "resist": 4786,
      "sky": 4787,
      "driven": 4788,
      "substance": 4789,
      "court": 4790,
      "listened": 4791,
      "effective": 4792,
      "engage": 4793,
      "engulf": 4794,
      "followed": 4795,
      "laughed": 4796,
      "disconnect": 4797,
      "affecting": 4798,
      "independent": 4799,
      "dropping": 4800,
      "autistic": 4801,
      "bloody": 4802,
      "concert": 4803,
      "mirtaz": 4804,
      "numbness": 4805,
      "charge": 4806,
      "jumping": 4807,
      "jumped": 4808,
      "skinny": 4809,
      "airport": 4810,
      "elementary": 4811,
      "transfer": 4812,
      "tightness": 4813,
      "praying": 4814,
      "connected": 4815,
      "revol": 4816,
      "hyperventil": 4817,
      "passionate": 4818,
      "informed": 4819,
      "healing": 4820,
      "crushing": 4821,
      "responded": 4822,
      "switched": 4823,
      "clinical": 4824,
      "obsession": 4825,
      "miley": 4826,
      "encoura": 4827,
      "denial": 4828,
      "tablet": 4829,
      "envy": 4830,
      "dereal": 4831,
      "popular": 4832,
      "##iliar": 4833,
      "status": 4834,
      "color": 4835,
      "##rupted": 4836,
      "punish": 4837,
      "celexa": 4838,
      "procrastinating": 4839,
      "volunt": 4840,
      "identity": 4841,
      "balance": 4842,
      "assumed": 4843,
      "dissap": 4844,
      "cuddle": 4845,
      "ghost": 4846,
      "assaulted": 4847,
      "milk": 4848,
      "##raine": 4849,
      "contemplating": 4850,
      "discovered": 4851,
      "infection": 4852,
      "betrayed": 4853,
      "alternative": 4854,
      "cheap": 4855,
      "academic": 4856,
      "spoil": 4857,
      "suffoc": 4858,
      "disrespect": 4859,
      "existential": 4860,
      "unpleasant": 4861,
      "stephenkru": 4862,
      "transition": 4863,
      "ridiculous": 4864,
      "##broken": 4865,
      "album": 4866,
      "overreacting": 4867,
      "quarantine": 4868,
      "drove": 4869,
      "mirtazapine": 4870,
      "stephenkruiser": 4871,
      "0th": 4872,
      "9th": 4873,
      "aa": 4874,
      "bare": 4875,
      "cig": 4876,
      "ded": 4877,
      "dir": 4878,
      "empath": 4879,
      "fb": 4880,
      "file": 4881,
      "gag": 4882,
      "gna": 4883,
      "hugged": 4884,
      "ist": 4885,
      "iam": 4886,
      "junk": 4887,
      "kissed": 4888,
      "lb": 4889,
      "lung": 4890,
      "mer": 4891,
      "mich": 4892,
      "nh": 4893,
      "nich": 4894,
      "ol": 4895,
      "om": 4896,
      "pod": 4897,
      "piz": 4898,
      "pair": 4899,
      "sel": 4900,
      "sane": 4901,
      "tense": 4902,
      "taper": 4903,
      "tension": 4904,
      "vet": 4905,
      "vul": 4906,
      "vib": 4907,
      "zone": 4908,
      "##list": 4909,
      "##ipp": 4910,
      "##iam": 4911,
      "##iac": 4912,
      "##herbs": 4913,
      "##een": 4914,
      "##yr": 4915,
      "##yis": 4916,
      "##rop": 4917,
      "##rick": 4918,
      "##fh": 4919,
      "##wang": 4920,
      "##nment": 4921,
      "##gen": 4922,
      "##gan": 4923,
      "##gien": 4924,
      "##ument": 4925,
      "##si": 4926,
      "##pet": 4927,
      "##ml": 4928,
      "##mc": 4929,
      "##ms": 4930,
      "##ja": 4931,
      "##erm": 4932,
      "tom": 4933,
      "##orate": 4934,
      "##stud": 4935,
      "##stair": 4936,
      "##thin": 4937,
      "itunes": 4938,
      "inch": 4939,
      "lip": 4940,
      "lit": 4941,
      "libid": 4942,
      "whis": 4943,
      "##areness": 4944,
      "ont": 4945,
      "stri": 4946,
      "stare": 4947,
      "style": 4948,
      "ish": 4949,
      "button": 4950,
      "fever": 4951,
      "##antage": 4952,
      "shr": 4953,
      "shown": 4954,
      "shroom": 4955,
      "youth": 4956,
      "youre": 4957,
      "##opath": 4958,
      "abdom": 4959,
      "suit": 4960,
      "##iration": 4961,
      "reb": 4962,
      "rein": 4963,
      "reque": 4964,
      "##imb": 4965,
      "unre": 4966,
      "unint": 4967,
      "unlo": 4968,
      "agency": 4969,
      "mob": 4970,
      "##uled": 4971,
      "##ulation": 4972,
      "##aping": 4973,
      "spee": 4974,
      "intens": 4975,
      "##ealing": 4976,
      "brit": 4977,
      "joined": 4978,
      "truck": 4979,
      "arr": 4980,
      "exper": 4981,
      "disci": 4982,
      "prem": 4983,
      "compreh": 4984,
      "hoped": 4985,
      "misunder": 4986,
      "blur": 4987,
      "bliss": 4988,
      "##achel": 4989,
      "healthgrade": 4990,
      "guarant": 4991,
      "sorrow": 4992,
      "##ugging": 4993,
      "decl": 4994,
      "heartbroken": 4995,
      "hurtful": 4996,
      "pulling": 4997,
      "accepting": 4998,
      "##oga": 4999,
      "highly": 5000,
      "colleague": 5001,
      "craw": 5002,
      "sickness": 5003,
      "psyched": 5004,
      "incap": 5005,
      "advantage": 5006,
      "believed": 5007,
      "messy": 5008,
      "confusion": 5009,
      "laid": 5010,
      "excitement": 5011,
      "ohh": 5012,
      "instinct": 5013,
      "realizing": 5014,
      "sooner": 5015,
      "enjoyment": 5016,
      "driver": 5017,
      "adding": 5018,
      "possess": 5019,
      "smallest": 5020,
      "deadline": 5021,
      "copy": 5022,
      "smiling": 5023,
      "continued": 5024,
      "angel": 5025,
      "remain": 5026,
      "distraction": 5027,
      "dragging": 5028,
      "negatively": 5029,
      "humanity": 5030,
      "maine": 5031,
      "maintain": 5032,
      "tested": 5033,
      "generation": 5034,
      "smoked": 5035,
      "freel": 5036,
      "legit": 5037,
      "discord": 5038,
      "affection": 5039,
      "avoiding": 5040,
      "poorly": 5041,
      "individ": 5042,
      "autom": 5043,
      "wheel": 5044,
      "hygien": 5045,
      "signed": 5046,
      "hahaha": 5047,
      "fatal": 5048,
      "thelmaherbs": 5049,
      "turkey": 5050,
      "alcoholic": 5051,
      "include": 5052,
      "particip": 5053,
      "management": 5054,
      "reminds": 5055,
      "transl": 5056,
      "blew": 5057,
      "disgusted": 5058,
      "paranoia": 5059,
      "clinic": 5060,
      "covered": 5061,
      "accomplished": 5062,
      "route": 5063,
      "##ophy": 5064,
      "##ophren": 5065,
      "introdu": 5066,
      "introverted": 5067,
      "technically": 5068,
      "necessary": 5069,
      "recommended": 5070,
      "threatening": 5071,
      "stats": 5072,
      "previously": 5073,
      "occasionally": 5074,
      "drawing": 5075,
      "freshman": 5076,
      "organization": 5077,
      "rapid": 5078,
      "ultra": 5079,
      "foreign": 5080,
      "##ounce": 5081,
      "torture": 5082,
      "temporarily": 5083,
      "fantasize": 5084,
      "identify": 5085,
      "square": 5086,
      "lifetime": 5087,
      "narcissistic": 5088,
      "injury": 5089,
      "worsened": 5090,
      "heartbreak": 5091,
      "directly": 5092,
      "inevitable": 5093,
      "critic": 5094,
      "vaccine": 5095,
      "shaky": 5096,
      "germany": 5097,
      "culture": 5098,
      "itchy": 5099,
      "grieving": 5100,
      "inducing": 5101,
      "persist": 5102,
      "utterly": 5103,
      "boundary": 5104,
      "creative": 5105,
      "##ulsive": 5106,
      "supporting": 5107,
      "input": 5108,
      "schizophren": 5109,
      "budget": 5110,
      "restaurant": 5111,
      "anticip": 5112,
      "europe": 5113,
      "execut": 5114,
      "channel": 5115,
      "celebrate": 5116,
      "government": 5117,
      "rubbish": 5118,
      "engulfed": 5119,
      "vulner": 5120,
      "##stairs": 5121,
      "libido": 5122,
      "speech": 5123,
      "healthgrades": 5124,
      "hygiene": 5125,
      "aud": 5126,
      "aug": 5127,
      "bon": 5128,
      "bond": 5129,
      "bah": 5130,
      "dil": 5131,
      "eh": 5132,
      "gender": 5133,
      "ja": 5134,
      "jack": 5135,
      "jus": 5136,
      "king": 5137,
      "lm": 5138,
      "luc": 5139,
      "mt": 5140,
      "mut": 5141,
      "mas": 5142,
      "milit": 5143,
      "nike": 5144,
      "oven": 5145,
      "peak": 5146,
      "rut": 5147,
      "rlly": 5148,
      "raz": 5149,
      "raining": 5150,
      "source": 5151,
      "ty": 5152,
      "vicious": 5153,
      "wis": 5154,
      "wound": 5155,
      "xx": 5156,
      "zoning": 5157,
      "##iy": 5158,
      "##ij": 5159,
      "##bble": 5160,
      "##berg": 5161,
      "##rent": 5162,
      "##rad": 5163,
      "##away": 5164,
      "##ng": 5165,
      "##nab": 5166,
      "##uit": 5167,
      "##pitation": 5168,
      "##va": 5169,
      "##van": 5170,
      "##tin": 5171,
      "##mt": 5172,
      "##ket": 5173,
      "##ino": 5174,
      "##iner": 5175,
      "##eron": 5176,
      "##ersonal": 5177,
      "##ona": 5178,
      "##ench": 5179,
      "##ature": 5180,
      "##ativity": 5181,
      "##orap": 5182,
      "theory": 5183,
      "##star": 5184,
      "##eled": 5185,
      "haun": 5186,
      "##oma": 5187,
      "##res": 5188,
      "##issing": 5189,
      "ligh": 5190,
      "libr": 5191,
      "##ays": 5192,
      "##etine": 5193,
      "##etown": 5194,
      "##otine": 5195,
      "##ssip": 5196,
      "ste": 5197,
      "stol": 5198,
      "stimul": 5199,
      "wid": 5200,
      "wired": 5201,
      "##idim": 5202,
      "sob": 5203,
      "##china": 5204,
      "##rie": 5205,
      "##rive": 5206,
      "gosh": 5207,
      "gossip": 5208,
      "abus": 5209,
      "alert": 5210,
      "web": 5211,
      "weigh": 5212,
      "##tery": 5213,
      "knock": 5214,
      "amb": 5215,
      "outlet": 5216,
      "outgoing": 5217,
      "section": 5218,
      "##thern": 5219,
      "##xia": 5220,
      "depending": 5221,
      "frank": 5222,
      "congr": 5223,
      "##ackto": 5224,
      "heat": 5225,
      "hesit": 5226,
      "heidim": 5227,
      "chal": 5228,
      "chris": 5229,
      "church": 5230,
      "##race": 5231,
      "##ilot": 5232,
      "##inder": 5233,
      "##indian": 5234,
      "poison": 5235,
      "cast": 5236,
      "unst": 5237,
      "unpro": 5238,
      "agorap": 5239,
      "##ulate": 5240,
      "climb": 5241,
      "brow": 5242,
      "##cist": 5243,
      "##mph": 5244,
      "##istry": 5245,
      "##olol": 5246,
      "addition": 5247,
      "admin": 5248,
      "##igation": 5249,
      "disab": 5250,
      "scold": 5251,
      "takeusb": 5252,
      "twist": 5253,
      "acted": 5254,
      "parking": 5255,
      "wherever": 5256,
      "##arden": 5257,
      "##amin": 5258,
      "blind": 5259,
      "blip": 5260,
      "apple": 5261,
      "acid": 5262,
      "theirs": 5263,
      "bug": 5264,
      "bubble": 5265,
      "host": 5266,
      "hollow": 5267,
      "prin": 5268,
      "mindfulness": 5269,
      "##tenance": 5270,
      "flow": 5271,
      "flaw": 5272,
      "stressing": 5273,
      "intervention": 5274,
      "handling": 5275,
      "extent": 5276,
      "extro": 5277,
      "cured": 5278,
      "believing": 5279,
      "mail": 5280,
      "giant": 5281,
      "consult": 5282,
      "existed": 5283,
      "restless": 5284,
      "skipping": 5285,
      "insult": 5286,
      "burst": 5287,
      "##ontag": 5288,
      "##aveindian": 5289,
      "defic": 5290,
      "define": 5291,
      "humor": 5292,
      "smaller": 5293,
      "dreaming": 5294,
      "laun": 5295,
      "influ": 5296,
      "remaining": 5297,
      "remote": 5298,
      "##bbed": 5299,
      "##play": 5300,
      "irre": 5301,
      "negativity": 5302,
      "retail": 5303,
      "maintenance": 5304,
      "fixed": 5305,
      "babe": 5306,
      "managing": 5307,
      "propran": 5308,
      "discus": 5309,
      "darkness": 5310,
      "artist": 5311,
      "sends": 5312,
      "terrifying": 5313,
      "exception": 5314,
      "amazon": 5315,
      "developing": 5316,
      "straw": 5317,
      "sunny": 5318,
      "counting": 5319,
      "improving": 5320,
      "winter": 5321,
      "spiraling": 5322,
      "grip": 5323,
      "described": 5324,
      "overdosing": 5325,
      "increasing": 5326,
      "server": 5327,
      "##oooooooo": 5328,
      "silver": 5329,
      "reminder": 5330,
      "relieved": 5331,
      "disappeared": 5332,
      "patrick": 5333,
      "hometown": 5334,
      "##rrr": 5335,
      "document": 5336,
      "sexuality": 5337,
      "dans": 5338,
      "crashing": 5339,
      "communication": 5340,
      "gaslight": 5341,
      "replace": 5342,
      "fmwang": 5343,
      "flashback": 5344,
      "neighbour": 5345,
      "pregnancy": 5346,
      "arrive": 5347,
      "attracted": 5348,
      "punished": 5349,
      "nicotine": 5350,
      "electric": 5351,
      "fantasy": 5352,
      "separate": 5353,
      "contribut": 5354,
      "bullying": 5355,
      "assuming": 5356,
      "narcissist": 5357,
      "performance": 5358,
      "software": 5359,
      "tummy": 5360,
      "palpitation": 5361,
      "blanket": 5362,
      "eternal": 5363,
      "neurolog": 5364,
      "medioc": 5365,
      "restricted": 5366,
      "virgin": 5367,
      "complicated": 5368,
      "fortun": 5369,
      "brutal": 5370,
      "concentrate": 5371,
      "avec": 5372,
      "junior": 5373,
      "##iveness": 5374,
      "compliment": 5375,
      "insanely": 5376,
      "hypoth": 5377,
      "australia": 5378,
      "verbally": 5379,
      "podcast": 5380,
      "pizza": 5381,
      "##yisaveindian": 5382,
      "##students": 5383,
      "shrooms": 5384,
      "psychedel": 5385,
      "individual": 5386,
      "vulnerable": 5387,
      "military": 5388,
      "lighth": 5389,
      "library": 5390,
      "stolen": 5391,
      "##acktochina": 5392,
      "heidimontag": 5393,
      "takeusbacktochina": 5394,
      "propranolol": 5395,
      "fmwangyisaveindian": 5396,
      "fmwangyisaveindianstudents": 5397,
      "ath": 5398,
      "bio": 5399,
      "ck": 5400,
      "cro": 5401,
      "cart": 5402,
      "citalopram": 5403,
      "dick": 5404,
      "ect": 5405,
      "east": 5406,
      "egg": 5407,
      "fyi": 5408,
      "gd": 5409,
      "gaming": 5410,
      "hon": 5411,
      "hous": 5412,
      "hence": 5413,
      "iv": 5414,
      "ich": 5415,
      "jaw": 5416,
      "kh": 5417,
      "ken": 5418,
      "kay": 5419,
      "mf": 5420,
      "mart": 5421,
      "mast": 5422,
      "mig": 5423,
      "mdd": 5424,
      "n0": 5425,
      "native": 5426,
      "port": 5427,
      "ren": 5428,
      "row": 5429,
      "rise": 5430,
      "river": 5431,
      "tan": 5432,
      "tag": 5433,
      "tab": 5434,
      "taught": 5435,
      "vous": 5436,
      "wo": 5437,
      "yoga": 5438,
      "zoom": 5439,
      "##li": 5440,
      "##long": 5441,
      "##lich": 5442,
      "##iant": 5443,
      "##ivers": 5444,
      "##eg": 5445,
      "##oqu": 5446,
      "##ban": 5447,
      "##bic": 5448,
      "##bur": 5449,
      "##bab": 5450,
      "##rknight": 5451,
      "##ament": 5452,
      "##gy": 5453,
      "##gie": 5454,
      "##sm": 5455,
      "##mble": 5456,
      "##kh": 5457,
      "##ks": 5458,
      "##kle": 5459,
      "thick": 5460,
      "thyroid": 5461,
      "##inc": 5462,
      "##erating": 5463,
      "anore": 5464,
      "ankle": 5465,
      "toile": 5466,
      "tone": 5467,
      "##ati": 5468,
      "##ata": 5469,
      "##thood": 5470,
      "belly": 5471,
      "##omfort": 5472,
      "inade": 5473,
      "##owed": 5474,
      "##les": 5475,
      "meat": 5476,
      "##ett": 5477,
      "##otonin": 5478,
      "##iced": 5479,
      "##arr": 5480,
      "##arre": 5481,
      "stro": 5482,
      "storm": 5483,
      "stret": 5484,
      "forth": 5485,
      "wide": 5486,
      "island": 5487,
      "##iter": 5488,
      "##aline": 5489,
      "##ript": 5490,
      "sha": 5491,
      "shining": 5492,
      "##ophobia": 5493,
      "cannab": 5494,
      "##cell": 5495,
      "neur": 5496,
      "sum": 5497,
      "##aded": 5498,
      "##tered": 5499,
      "##ressing": 5500,
      "ord": 5501,
      "seat": 5502,
      "depersonal": 5503,
      "faced": 5504,
      "##ille": 5505,
      "extern": 5506,
      "const": 5507,
      "loath": 5508,
      "heck": 5509,
      "cha": 5510,
      "chain": 5511,
      "chair": 5512,
      "cherry": 5513,
      "imma": 5514,
      "cage": 5515,
      "plain": 5516,
      "pleasure": 5517,
      "hero": 5518,
      "hers": 5519,
      "heroin": 5520,
      "unwell": 5521,
      "##ffff": 5522,
      "workload": 5523,
      "##eaded": 5524,
      "##ulthood": 5525,
      "backst": 5526,
      "afric": 5527,
      "spr": 5528,
      "spam": 5529,
      "spouse": 5530,
      "cock": 5531,
      "##tte": 5532,
      "cliff": 5533,
      "bru": 5534,
      "breast": 5535,
      "jose": 5536,
      "beta": 5537,
      "##istically": 5538,
      "offing": 5539,
      "exposed": 5540,
      "adulthood": 5541,
      "disp": 5542,
      "disass": 5543,
      "familiar": 5544,
      "string": 5545,
      "strict": 5546,
      "loose": 5547,
      "loosing": 5548,
      "asap": 5549,
      "aswell": 5550,
      "##nes": 5551,
      "##beat": 5552,
      "compass": 5553,
      "compare": 5554,
      "comparing": 5555,
      "blo": 5556,
      "blast": 5557,
      "blowing": 5558,
      "boot": 5559,
      "##mother": 5560,
      "tiredness": 5561,
      "killer": 5562,
      "acne": 5563,
      "##ected": 5564,
      "buried": 5565,
      "awa": 5566,
      "awareness": 5567,
      "proof": 5568,
      "broad": 5569,
      "supplement": 5570,
      "puppy": 5571,
      "highest": 5572,
      "##uded": 5573,
      "##while": 5574,
      "slit": 5575,
      "slipping": 5576,
      "ourselves": 5577,
      "impending": 5578,
      "income": 5579,
      "009": 5580,
      "medicated": 5581,
      "socializing": 5582,
      "max": 5583,
      "mama": 5584,
      "##viate": 5585,
      "##quake": 5586,
      "listens": 5587,
      "horror": 5588,
      "surely": 5589,
      "wondered": 5590,
      "longest": 5591,
      "goddam": 5592,
      "assist": 5593,
      "##ologist": 5594,
      "payche": 5595,
      "quote": 5596,
      "strongly": 5597,
      "controlled": 5598,
      "damaged": 5599,
      "calif": 5600,
      "shortly": 5601,
      "latest": 5602,
      "remeron": 5603,
      "dragged": 5604,
      "##cyrus": 5605,
      "uncons": 5606,
      "pillow": 5607,
      "bullet": 5608,
      "follower": 5609,
      "##yyy": 5610,
      "forgetting": 5611,
      "pursu": 5612,
      "acceptance": 5613,
      "discomfort": 5614,
      "avoided": 5615,
      "treating": 5616,
      "tremor": 5617,
      "booked": 5618,
      "##berry": 5619,
      "hahahaha": 5620,
      "harmful": 5621,
      "promotion": 5622,
      "design": 5623,
      "nonstop": 5624,
      "counse": 5625,
      "doub": 5626,
      "sugar": 5627,
      "apology": 5628,
      "apologise": 5629,
      "repeating": 5630,
      "beauty": 5631,
      "grab": 5632,
      "grandpa": 5633,
      "relaxing": 5634,
      "hopelessness": 5635,
      "beaten": 5636,
      "capacity": 5637,
      "series": 5638,
      "serotonin": 5639,
      "##board": 5640,
      "vibe": 5641,
      "privile": 5642,
      "privately": 5643,
      "earthquake": 5644,
      "distracting": 5645,
      "auth": 5646,
      "prepared": 5647,
      "green": 5648,
      "involves": 5649,
      "respected": 5650,
      "specialist": 5651,
      "crashed": 5652,
      "petty": 5653,
      "seeker": 5654,
      "introvert": 5655,
      "complaint": 5656,
      "complaining": 5657,
      "responsible": 5658,
      "preventing": 5659,
      "threatened": 5660,
      "insecurity": 5661,
      "abandonment": 5662,
      "lawyer": 5663,
      "replied": 5664,
      "permanently": 5665,
      "linked": 5666,
      "##oxetine": 5667,
      "arrived": 5668,
      "dissociation": 5669,
      "counseling": 5670,
      "##yrocket": 5671,
      "dependent": 5672,
      "chemistry": 5673,
      "shooting": 5674,
      "absence": 5675,
      "campus": 5676,
      "hooked": 5677,
      "##ombie": 5678,
      "stabil": 5679,
      "ironically": 5680,
      "spiritual": 5681,
      "heartbreaking": 5682,
      "karma": 5683,
      "mixed": 5684,
      "nih": 5685,
      "halluc": 5686,
      "secretly": 5687,
      "retarded": 5688,
      "witnessed": 5689,
      "obsessive": 5690,
      "choking": 5691,
      "engineering": 5692,
      "dysfunction": 5693,
      "pulse": 5694,
      "apathetic": 5695,
      "benzos": 5696,
      "dvd": 5697,
      "defeated": 5698,
      "original": 5699,
      "murder": 5700,
      "invest": 5701,
      "limbo": 5702,
      "mushroom": 5703,
      "plagued": 5704,
      "boarding": 5705,
      "battling": 5706,
      "chapter": 5707,
      "molested": 5708,
      "jonathanrknight": 5709,
      "evidence": 5710,
      "sustain": 5711,
      "phobia": 5712,
      "according": 5713,
      "disconnected": 5714,
      "hyperventilating": 5715,
      "mileycyrus": 5716,
      "nicht": 5717,
      "##ropri": 5718,
      "request": 5719,
      "experiment": 5720,
      "incapable": 5721,
      "introduced": 5722,
      "schizophrenia": 5723,
      "lucid": 5724,
      "wisdom": 5725,
      "unstable": 5726,
      "agoraphobia": 5727,
      "extroverted": 5728,
      "lightheaded": 5729,
      "housing": 5730,
      "masturb": 5731,
      "toilet": 5732,
      "inadequ": 5733,
      "stroke": 5734,
      "depersonalization": 5735,
      "disassoci": 5736,
      "compassion": 5737,
      "paycheck": 5738,
      "9am": 5739,
      "aid": 5740,
      "ari": 5741,
      "bay": 5742,
      "biz": 5743,
      "bite": 5744,
      "bird": 5745,
      "bike": 5746,
      "bomb": 5747,
      "cake": 5748,
      "crow": 5749,
      "dome": 5750,
      "dressed": 5751,
      "ey": 5752,
      "eg": 5753,
      "ein": 5754,
      "elder": 5755,
      "fri": 5756,
      "fist": 5757,
      "fright": 5758,
      "gab": 5759,
      "gaining": 5760,
      "hen": 5761,
      "hint": 5762,
      "horm": 5763,
      "ib": 5764,
      "jer": 5765,
      "jap": 5766,
      "jam": 5767,
      "jes": 5768,
      "jail": 5769,
      "kg": 5770,
      "kit": 5771,
      "klon": 5772,
      "mand": 5773,
      "melt": 5774,
      "nut": 5775,
      "nep": 5776,
      "num": 5777,
      "national": 5778,
      "obe": 5779,
      "ped": 5780,
      "ple": 5781,
      "pad": 5782,
      "pra": 5783,
      "pile": 5784,
      "patch": 5785,
      "ray": 5786,
      "rad": 5787,
      "rail": 5788,
      "ripped": 5789,
      "size": 5790,
      "tic": 5791,
      "tad": 5792,
      "upp": 5793,
      "vh": 5794,
      "va": 5795,
      "vid": 5796,
      "vice": 5797,
      "wbc": 5798,
      "xbox": 5799,
      "yep": 5800,
      "yup": 5801,
      "zombie": 5802,
      "##life": 5803,
      "##iency": 5804,
      "##cling": 5805,
      "##case": 5806,
      "##han": 5807,
      "##hel": 5808,
      "##hear": 5809,
      "##ex": 5810,
      "##ok": 5811,
      "##oir": 5812,
      "##offic": 5813,
      "##bing": 5814,
      "##buck": 5815,
      "##rum": 5816,
      "##fy": 5817,
      "##fen": 5818,
      "##fuck": 5819,
      "##with": 5820,
      "##not": 5821,
      "##gment": 5822,
      "##ull": 5823,
      "##sound": 5824,
      "##py": 5825,
      "##pre": 5826,
      "##patient": 5827,
      "##tee": 5828,
      "##ku": 5829,
      "##ji": 5830,
      "##jo": 5831,
      "##jd": 5832,
      "thus": 5833,
      "##inter": 5834,
      "##ery": 5835,
      "##erous": 5836,
      "toast": 5837,
      "##ene": 5838,
      "##enced": 5839,
      "##ora": 5840,
      "##orter": 5841,
      "##oria": 5842,
      "##orida": 5843,
      "andy": 5844,
      "thesis": 5845,
      "hai": 5846,
      "harass": 5847,
      "itll": 5848,
      "inapp": 5849,
      "inability": 5850,
      "##ises": 5851,
      "lil": 5852,
      "##otely": 5853,
      "##verty": 5854,
      "##ari": 5855,
      "##arma": 5856,
      "stead": 5857,
      "stig": 5858,
      "forum": 5859,
      "wir": 5860,
      "##itated": 5861,
      "##itiz": 5862,
      "butt": 5863,
      "butter": 5864,
      "sole": 5865,
      "soph": 5866,
      "sooooo": 5867,
      "fellow": 5868,
      "##epam": 5869,
      "##chester": 5870,
      "##ants": 5871,
      "##antly": 5872,
      "shatter": 5873,
      "##oprol": 5874,
      "worn": 5875,
      "align": 5876,
      "alien": 5877,
      "susp": 5878,
      "knot": 5879,
      "knocked": 5880,
      "##rolled": 5881,
      "##rolling": 5882,
      "resc": 5883,
      "outta": 5884,
      "outpatient": 5885,
      "##aint": 5886,
      "frag": 5887,
      "france": 5888,
      "##atest": 5889,
      "exch": 5890,
      "excess": 5891,
      "exagger": 5892,
      "lover": 5893,
      "chas": 5894,
      "choke": 5895,
      "##bless": 5896,
      "poverty": 5897,
      "wouldnt": 5898,
      "pleasant": 5899,
      "friendly": 5900,
      "##imm": 5901,
      "una": 5902,
      "unne": 5903,
      "unrel": 5904,
      "uneasy": 5905,
      "sam": 5906,
      "##anda": 5907,
      "##shop": 5908,
      "moony": 5909,
      "prolong": 5910,
      "ens": 5911,
      "overly": 5912,
      "overload": 5913,
      "intim": 5914,
      "clu": 5915,
      "cling": 5916,
      "clos": 5917,
      "brand": 5918,
      "joint": 5919,
      "##spons": 5920,
      "manife": 5921,
      "weekly": 5922,
      "adm": 5923,
      "adren": 5924,
      "adjust": 5925,
      "##igo": 5926,
      "##usi": 5927,
      "harmed": 5928,
      "disaster": 5929,
      "scaring": 5930,
      "script": 5931,
      "sinus": 5932,
      "precious": 5933,
      "##agraph": 5934,
      "attending": 5935,
      "talkative": 5936,
      "persona": 5937,
      "schoolwork": 5938,
      "release": 5939,
      "hears": 5940,
      "downstairs": 5941,
      "realistically": 5942,
      "quarter": 5943,
      "paraly": 5944,
      "paragraph": 5945,
      "blamed": 5946,
      "ideal": 5947,
      "pharma": 5948,
      "acqu": 5949,
      "seemingly": 5950,
      "hopeful": 5951,
      "bump": 5952,
      "buzz": 5953,
      "budd": 5954,
      "healthcare": 5955,
      "guard": 5956,
      "heartbeat": 5957,
      "##otherap": 5958,
      "attacked": 5959,
      "meanwhile": 5960,
      "flip": 5961,
      "flower": 5962,
      "florida": 5963,
      "careless": 5964,
      "slack": 5965,
      "terribly": 5966,
      "incom": 5967,
      "incitement": 5968,
      "advent": 5969,
      "curl": 5970,
      "minus": 5971,
      "##emy": 5972,
      "studied": 5973,
      "childish": 5974,
      "repair": 5975,
      "worthy": 5976,
      "cheek": 5977,
      "tait": 5978,
      "cream": 5979,
      "daddy": 5980,
      "traz": 5981,
      "trave": 5982,
      "tracy": 5983,
      "resident": 5984,
      "baseline": 5985,
      "tongue": 5986,
      "address": 5987,
      "disorient": 5988,
      "lowered": 5989,
      "subcon": 5990,
      "useful": 5991,
      "smooth": 5992,
      "infl": 5993,
      "freezing": 5994,
      "singing": 5995,
      "##hobic": 5996,
      "questioning": 5997,
      "remotely": 5998,
      "##place": 5999,
      "##zzle": 6000,
      "metoprol": 6001,
      "disappoin": 6002,
      "##phic": 6003,
      "hubby": 6004,
      "retire": 6005,
      "solely": 6006,
      "##entionally": 6007,
      "engaged": 6008,
      "imagining": 6009,
      "speaks": 6010,
      "committee": 6011,
      "follows": 6012,
      "midnight": 6013,
      "##ianc": 6014,
      "raise": 6015,
      "##aneously": 6016,
      "reflect": 6017,
      "trusted": 6018,
      "indust": 6019,
      "batman": 6020,
      "determ": 6021,
      "ignoring": 6022,
      "development": 6023,
      "visited": 6024,
      "showering": 6025,
      "judged": 6026,
      "generalized": 6027,
      "##tok": 6028,
      "dumbass": 6029,
      "apologized": 6030,
      "grasp": 6031,
      "touched": 6032,
      "overdosed": 6033,
      "unexp": 6034,
      "seroqu": 6035,
      "##ooooo": 6036,
      "purpos": 6037,
      "spotify": 6038,
      "growth": 6039,
      "renting": 6040,
      "##iii": 6041,
      "##ornia": 6042,
      "relieve": 6043,
      "recovering": 6044,
      "healed": 6045,
      "devil": 6046,
      "entertain": 6047,
      "scheduled": 6048,
      "greatest": 6049,
      "logic": 6050,
      "logical": 6051,
      "yawn": 6052,
      "tends": 6053,
      "tendency": 6054,
      "package": 6055,
      "consistent": 6056,
      "obsessed": 6057,
      "garage": 6058,
      "yelling": 6059,
      "##minal": 6060,
      "biological": 6061,
      "belonging": 6062,
      "##hhhhhhhh": 6063,
      "surprise": 6064,
      "denied": 6065,
      "hidden": 6066,
      "combat": 6067,
      "explan": 6068,
      "unlike": 6069,
      "unlik": 6070,
      "qualified": 6071,
      "violence": 6072,
      "wedding": 6073,
      "reassure": 6074,
      "forehead": 6075,
      "reference": 6076,
      "brushing": 6077,
      "competition": 6078,
      "washing": 6079,
      "satisfaction": 6080,
      "suggested": 6081,
      "electr": 6082,
      "survived": 6083,
      "borderline": 6084,
      "bumble": 6085,
      "equal": 6086,
      "america": 6087,
      "attachment": 6088,
      "validation": 6089,
      "rumor": 6090,
      "injured": 6091,
      "objectively": 6092,
      "politics": 6093,
      "sanity": 6094,
      "provided": 6095,
      "neighborhood": 6096,
      "pounding": 6097,
      "inevit": 6098,
      "casually": 6099,
      "unwanted": 6100,
      "invalidate": 6101,
      "transport": 6102,
      "destructive": 6103,
      "faint": 6104,
      "various": 6105,
      "delayed": 6106,
      "sarah": 6107,
      "flirting": 6108,
      "consuming": 6109,
      "intelligent": 6110,
      "econom": 6111,
      "frozen": 6112,
      "tiktok": 6113,
      "alleviate": 6114,
      "resolve": 6115,
      "deteriorating": 6116,
      "requires": 6117,
      "euph": 6118,
      "##mission": 6119,
      "anonymous": 6120,
      "uncertainty": 6121,
      "refused": 6122,
      "derealization": 6123,
      "suffocating": 6124,
      "unintentionally": 6125,
      "mobile": 6126,
      "executive": 6127,
      "august": 6128,
      "razor": 6129,
      "abuser": 6130,
      "deficiency": 6131,
      "mediocre": 6132,
      "psychedelics": 6133,
      "athlet": 6134,
      "migraine": 6135,
      "anorexia": 6136,
      "cannabis": 6137,
      "california": 6138,
      "crowd": 6139,
      "domestic": 6140,
      "numerous": 6141,
      "inappropri": 6142,
      "chasing": 6143,
      "disoriented": 6144,
      "disappointing": 6145,
      "ara": 6146,
      "bh": 6147,
      "bin": 6148,
      "bow": 6149,
      "bong": 6150,
      "bang": 6151,
      "bak": 6152,
      "bachel": 6153,
      "cm": 6154,
      "cod": 6155,
      "code": 6156,
      "das": 6157,
      "eine": 6158,
      "emo": 6159,
      "ego": 6160,
      "fc": 6161,
      "fel": 6162,
      "faded": 6163,
      "fianc": 6164,
      "gor": 6165,
      "gal": 6166,
      "gore": 6167,
      "gum": 6168,
      "gather": 6169,
      "gee": 6170,
      "grass": 6171,
      "hip": 6172,
      "honey": 6173,
      "hugging": 6174,
      "ii": 6175,
      "jess": 6176,
      "lin": 6177,
      "lan": 6178,
      "lis": 6179,
      "lake": 6180,
      "lind": 6181,
      "lup": 6182,
      "mot": 6183,
      "msn": 6184,
      "motion": 6185,
      "mouse": 6186,
      "nite": 6187,
      "ot": 6188,
      "oz": 6189,
      "oce": 6190,
      "pant": 6191,
      "pip": 6192,
      "pace": 6193,
      "piss": 6194,
      "piling": 6195,
      "rat": 6196,
      "rust": 6197,
      "rib": 6198,
      "rational": 6199,
      "sig": 6200,
      "tm": 6201,
      "ting": 6202,
      "tut": 6203,
      "tack": 6204,
      "tire": 6205,
      "tied": 6206,
      "tele": 6207,
      "tenn": 6208,
      "tinder": 6209,
      "vor": 6210,
      "virt": 6211,
      "xr": 6212,
      "yall": 6213,
      "zap": 6214,
      "##iffer": 6215,
      "##cr": 6216,
      "##came": 6217,
      "##hea": 6218,
      "##had": 6219,
      "##hab": 6220,
      "##eb": 6221,
      "##ese": 6222,
      "##egr": 6223,
      "##oop": 6224,
      "##dj": 6225,
      "##dney": 6226,
      "##bon": 6227,
      "##bel": 6228,
      "##bow": 6229,
      "##bot": 6230,
      "##bar": 6231,
      "##baz": 6232,
      "##yn": 6233,
      "##rid": 6234,
      "##aire": 6235,
      "##fc": 6236,
      "##free": 6237,
      "##fire": 6238,
      "##ws": 6239,
      "##wer": 6240,
      "##wor": 6241,
      "##wall": 6242,
      "##gl": 6243,
      "##giv": 6244,
      "##girl": 6245,
      "##ully": 6246,
      "##sf": 6247,
      "##sg": 6248,
      "##ps": 6249,
      "##pan": 6250,
      "##parent": 6251,
      "##vv": 6252,
      "##mar": 6253,
      "##mend": 6254,
      "##mod": 6255,
      "##motiv": 6256,
      "##zt": 6257,
      "##zed": 6258,
      "thor": 6259,
      "##ini": 6260,
      "##inal": 6261,
      "##erger": 6262,
      "##erco": 6263,
      "anime": 6264,
      "tok": 6265,
      "##onven": 6266,
      "##oric": 6267,
      "##oub": 6268,
      "##ani": 6269,
      "##ans": 6270,
      "myspace": 6271,
      "##eliev": 6272,
      "##theless": 6273,
      "##thium": 6274,
      "##thusi": 6275,
      "hack": 6276,
      "haunt": 6277,
      "begged": 6278,
      "##rey": 6279,
      "##isation": 6280,
      "ofc": 6281,
      "lift": 6282,
      "liqu": 6283,
      "lithium": 6284,
      "whine": 6285,
      "##etically": 6286,
      "##etamine": 6287,
      "##ott": 6288,
      "##sexual": 6289,
      "sting": 6290,
      "stal": 6291,
      "sticking": 6292,
      "##itter": 6293,
      "##iding": 6294,
      "##ented": 6295,
      "dop": 6296,
      "##alian": 6297,
      "justify": 6298,
      "##cher": 6299,
      "shel": 6300,
      "##ones": 6301,
      "donn": 6302,
      "canada": 6303,
      "##ces": 6304,
      "abortion": 6305,
      "neut": 6306,
      "##ador": 6307,
      "##adays": 6308,
      "noon": 6309,
      "##fess": 6310,
      "rex": 6311,
      "reci": 6312,
      "remed": 6313,
      "##ura": 6314,
      "##urs": 6315,
      "##urt": 6316,
      "seed": 6317,
      "depth": 6318,
      "depart": 6319,
      "fruit": 6320,
      "nowadays": 6321,
      "theyre": 6322,
      "dee": 6323,
      "fait": 6324,
      "conqu": 6325,
      "##artum": 6326,
      "heel": 6327,
      "##raz": 6328,
      "div": 6329,
      "immat": 6330,
      "poop": 6331,
      "capt": 6332,
      "plea": 6333,
      "comed": 6334,
      "combo": 6335,
      "unkn": 6336,
      "unmotiv": 6337,
      "sac": 6338,
      "agony": 6339,
      "##shi": 6340,
      "proceed": 6341,
      "enrolled": 6342,
      "enemy": 6343,
      "overcame": 6344,
      "##aped": 6345,
      "spill": 6346,
      "spark": 6347,
      "tryna": 6348,
      "clicked": 6349,
      "bran": 6350,
      "bread": 6351,
      "##ishing": 6352,
      "jobless": 6353,
      "tread": 6354,
      "treasure": 6355,
      "arre": 6356,
      "##ipment": 6357,
      "##ipsych": 6358,
      "manner": 6359,
      "manchester": 6360,
      "##ourne": 6361,
      "lasting": 6362,
      "expense": 6363,
      "##igan": 6364,
      "disag": 6365,
      "twin": 6366,
      "strain": 6367,
      "strang": 6368,
      "released": 6369,
      "lease": 6370,
      "realistic": 6371,
      "medit": 6372,
      "parad": 6373,
      "pointed": 6374,
      "phra": 6375,
      "phil": 6376,
      "wished": 6377,
      "sadden": 6378,
      "partly": 6379,
      "partially": 6380,
      "##anged": 6381,
      "hurry": 6382,
      "buck": 6383,
      "holl": 6384,
      "recept": 6385,
      "recall": 6386,
      "pred": 6387,
      "funn": 6388,
      "decr": 6389,
      "decline": 6390,
      "kindness": 6391,
      "##arette": 6392,
      "pump": 6393,
      "flare": 6394,
      "flush": 6395,
      "flipped": 6396,
      "bedtime": 6397,
      "sydney": 6398,
      "collapse": 6399,
      "slave": 6400,
      "slump": 6401,
      "craving": 6402,
      "suicidewatch": 6403,
      "inconven": 6404,
      "earned": 6405,
      "##irect": 6406,
      "commer": 6407,
      "fearing": 6408,
      "guessing": 6409,
      "mais": 6410,
      "laz": 6411,
      "lash": 6412,
      "russ": 6413,
      "mattered": 6414,
      "physic": 6415,
      "##cessary": 6416,
      "horribly": 6417,
      "crumb": 6418,
      "exists": 6419,
      "surface": 6420,
      "trait": 6421,
      "##ype": 6422,
      "basket": 6423,
      "weirdo": 6424,
      "weirdly": 6425,
      "register": 6426,
      "eachother": 6427,
      "##ifully": 6428,
      "marry": 6429,
      "diagnose": 6430,
      "supported": 6431,
      "##eeee": 6432,
      "defensive": 6433,
      "laught": 6434,
      "##love": 6435,
      "dammit": 6436,
      "despise": 6437,
      "calmed": 6438,
      "##azepam": 6439,
      "sexy": 6440,
      "freeze": 6441,
      "antipsych": 6442,
      "distr": 6443,
      "gradually": 6444,
      "##full": 6445,
      "effectively": 6446,
      "settle": 6447,
      "huh": 6448,
      "delib": 6449,
      "deliver": 6450,
      "explains": 6451,
      "##ruction": 6452,
      "fixing": 6453,
      "answered": 6454,
      "figuring": 6455,
      "peaceful": 6456,
      "raw": 6457,
      "rash": 6458,
      "racist": 6459,
      "trek": 6460,
      "escitalopram": 6461,
      "##dddd": 6462,
      "noticeable": 6463,
      "perfection": 6464,
      "tweetde": 6465,
      "##upied": 6466,
      "upsetting": 6467,
      "importantly": 6468,
      "presence": 6469,
      "cleaned": 6470,
      "embarrassment": 6471,
      "visiting": 6472,
      "addictive": 6473,
      "miracle": 6474,
      "alcoholism": 6475,
      "judgment": 6476,
      "filling": 6477,
      "gramm": 6478,
      "graphic": 6479,
      "criminal": 6480,
      "tearing": 6481,
      "expressed": 6482,
      "grandparent": 6483,
      "earliest": 6484,
      "accommod": 6485,
      "confidential": 6486,
      "isolate": 6487,
      "chatting": 6488,
      "surviv": 6489,
      "rising": 6490,
      "incredible": 6491,
      "torn": 6492,
      "choosing": 6493,
      "exercising": 6494,
      "achieved": 6495,
      "jeff": 6496,
      "entered": 6497,
      "preparing": 6498,
      "cardi": 6499,
      "screwing": 6500,
      "racism": 6501,
      "filter": 6502,
      "searched": 6503,
      "freaked": 6504,
      "accomplishment": 6505,
      "seasonal": 6506,
      "market": 6507,
      "bearable": 6508,
      "daniel": 6509,
      "model": 6510,
      "modern": 6511,
      "roughly": 6512,
      "unbeliev": 6513,
      "minimal": 6514,
      "reduced": 6515,
      "rainy": 6516,
      "carrying": 6517,
      "fatigued": 6518,
      "fantastic": 6519,
      "gutted": 6520,
      "replaced": 6521,
      "##aaaaaaaa": 6522,
      "occasional": 6523,
      "fml": 6524,
      "explode": 6525,
      "900": 6526,
      "colon": 6527,
      "ceiling": 6528,
      "larger": 6529,
      "oui": 6530,
      "emailed": 6531,
      "location": 6532,
      "frequently": 6533,
      "tortured": 6534,
      "procrastination": 6535,
      "satisfied": 6536,
      "separation": 6537,
      "equipment": 6538,
      "primarily": 6539,
      "blessing": 6540,
      "cudd": 6541,
      "ghosted": 6542,
      "landed": 6543,
      "immune": 6544,
      "discussion": 6545,
      "significantly": 6546,
      "political": 6547,
      "recommendation": 6548,
      "darn": 6549,
      "provider": 6550,
      "somedays": 6551,
      "##hydr": 6552,
      "destruction": 6553,
      "obsessing": 6554,
      "eternity": 6555,
      "fainting": 6556,
      "usern": 6557,
      "doomed": 6558,
      "neuro": 6559,
      "flooding": 6560,
      "associated": 6561,
      "engineer": 6562,
      "##ollen": 6563,
      "apathy": 6564,
      "consumed": 6565,
      "asperger": 6566,
      "autoimm": 6567,
      "journalist": 6568,
      "surrounded": 6569,
      "duty": 6570,
      "guidance": 6571,
      "corpse": 6572,
      "ekg": 6573,
      "rabbit": 6574,
      "initially": 6575,
      "perceive": 6576,
      "exclus": 6577,
      "uncontrollable": 6578,
      "cptsd": 6579,
      "html": 6580,
      "micro": 6581,
      "vertigo": 6582,
      "postpartum": 6583,
      "##ography": 6584,
      "resistant": 6585,
      "punishment": 6586,
      "spoiled": 6587,
      "cigarette": 6588,
      "dirty": 6589,
      "empathetic": 6590,
      "abdomen": 6591,
      "premier": 6592,
      "comprehend": 6593,
      "possession": 6594,
      "ultrasound": 6595,
      "haunted": 6596,
      "frankly": 6597,
      "disabled": 6598,
      "neurologist": 6599,
      "fortunate": 6600,
      "counsell": 6601,
      "nihil": 6602,
      "bizarre": 6603,
      "hormone": 6604,
      "##official": 6605,
      "butterfly": 6606,
      "excessive": 6607,
      "unrelated": 6608,
      "adrenaline": 6609,
      "buddy": 6610,
      "industry": 6611,
      "seroquel": 6612,
      "inevitably": 6613,
      "bachelor": 6614,
      "lupus": 6615,
      "ocean": 6616,
      "remedy": 6617,
      "unmotivated": 6618,
      "basketball": 6619,
      "antipsychotic": 6620,
      "tweetdeck": 6621,
      "accommodation": 6622,
      "autoimmune": 6623,
      "0f": 6624,
      "0x": 6625,
      "az": 6626,
      "aj": 6627,
      "aust": 6628,
      "ahh": 6629,
      "alex": 6630,
      "bb": 6631,
      "ber": 6632,
      "bid": 6633,
      "bff": 6634,
      "bash": 6635,
      "binge": 6636,
      "ct": 6637,
      "cue": 6638,
      "cul": 6639,
      "cbc": 6640,
      "citiz": 6641,
      "dl": 6642,
      "dat": 6643,
      "dea": 6644,
      "dur": 6645,
      "dug": 6646,
      "duck": 6647,
      "dirt": 6648,
      "eq": 6649,
      "eight": 6650,
      "emp": 6651,
      "ft": 6652,
      "fent": 6653,
      "flex": 6654,
      "gy": 6655,
      "gear": 6656,
      "gam": 6657,
      "gem": 6658,
      "gah": 6659,
      "groom": 6660,
      "garden": 6661,
      "hm": 6662,
      "hed": 6663,
      "hater": 6664,
      "hiring": 6665,
      "ibs": 6666,
      "jet": 6667,
      "jim": 6668,
      "krist": 6669,
      "kissing": 6670,
      "lor": 6671,
      "lou": 6672,
      "lur": 6673,
      "lame": 6674,
      "mh": 6675,
      "mort": 6676,
      "mall": 6677,
      "mute": 6678,
      "mount": 6679,
      "nk": 6680,
      "nude": 6681,
      "oop": 6682,
      "ooo": 6683,
      "oxy": 6684,
      "pi": 6685,
      "pp": 6686,
      "pause": 6687,
      "pim": 6688,
      "ry": 6689,
      "rin": 6690,
      "snd": 6691,
      "sack": 6692,
      "sne": 6693,
      "ti": 6694,
      "tp": 6695,
      "tt": 6696,
      "tant": 6697,
      "tatt": 6698,
      "ul": 6699,
      "uh": 6700,
      "um": 6701,
      "ven": 6702,
      "vain": 6703,
      "wfh": 6704,
      "xox": 6705,
      "yk": 6706,
      "##lie": 6707,
      "##lier": 6708,
      "##iate": 6709,
      "##iety": 6710,
      "##cur": 6711,
      "##cain": 6712,
      "##cul": 6713,
      "##cfly": 6714,
      "##hal": 6715,
      "##hoo": 6716,
      "##hand": 6717,
      "##hma": 6718,
      "##ham": 6719,
      "##hib": 6720,
      "##hicle": 6721,
      "##ech": 6722,
      "##emb": 6723,
      "##oe": 6724,
      "##ost": 6725,
      "##oot": 6726,
      "##och": 6727,
      "##dn": 6728,
      "##dain": 6729,
      "##bn": 6730,
      "##ben": 6731,
      "##boy": 6732,
      "##bud": 6733,
      "##bourne": 6734,
      "##you": 6735,
      "##rom": 6736,
      "##roph": 6737,
      "##ai": 6738,
      "##ait": 6739,
      "##fit": 6740,
      "##father": 6741,
      "##wu": 6742,
      "##word": 6743,
      "##ni": 6744,
      "##nat": 6745,
      "##nam": 6746,
      "##gic": 6747,
      "##ua": 6748,
      "##uth": 6749,
      "##uff": 6750,
      "##ucture": 6751,
      "##po": 6752,
      "##pu": 6753,
      "##pm": 6754,
      "##pline": 6755,
      "##vs": 6756,
      "##tre": 6757,
      "##mart": 6758,
      "##math": 6759,
      "##mia": 6760,
      "##xor": 6761,
      "##je": 6762,
      "##jour": 6763,
      "thir": 6764,
      "##ins": 6765,
      "##inet": 6766,
      "##erich": 6767,
      "toss": 6768,
      "tous": 6769,
      "toward": 6770,
      "tomm": 6771,
      "toler": 6772,
      "##enching": 6773,
      "##ato": 6774,
      "##atically": 6775,
      "##orth": 6776,
      "##anion": 6777,
      "##stood": 6778,
      "##stically": 6779,
      "##lle": 6780,
      "##eau": 6781,
      "hal": 6782,
      "bee": 6783,
      "##omatic": 6784,
      "##reg": 6785,
      "##reated": 6786,
      "##iscu": 6787,
      "##leting": 6788,
      "##ette": 6789,
      "##oted": 6790,
      "##ssimistic": 6791,
      "##ara": 6792,
      "##aram": 6793,
      "stagn": 6794,
      "stole": 6795,
      "##ito": 6796,
      "fest": 6797,
      "##alive": 6798,
      "##ality": 6799,
      "##chi": 6800,
      "shine": 6801,
      "ship": 6802,
      "shook": 6803,
      "gov": 6804,
      "gold": 6805,
      "##cking": 6806,
      "##opin": 6807,
      "notification": 6808,
      "donate": 6809,
      "wore": 6810,
      "abil": 6811,
      "atro": 6812,
      "alp": 6813,
      "alt": 6814,
      "##aud": 6815,
      "sup": 6816,
      "##adie": 6817,
      "nob": 6818,
      "nothin": 6819,
      "##fexor": 6820,
      "orange": 6821,
      "amy": 6822,
      "rese": 6823,
      "reck": 6824,
      "reward": 6825,
      "##urd": 6826,
      "##ural": 6827,
      "outdo": 6828,
      "upgrade": 6829,
      "##enda": 6830,
      "##ends": 6831,
      "seiz": 6832,
      "selling": 6833,
      "semi": 6834,
      "vehicle": 6835,
      "##xim": 6836,
      "depri": 6837,
      "##geon": 6838,
      "french": 6839,
      "dean": 6840,
      "dehydr": 6841,
      "fais": 6842,
      "fasc": 6843,
      "excell": 6844,
      "conv": 6845,
      "conven": 6846,
      "convo": 6847,
      "pee": 6848,
      "pessimistic": 6849,
      "chine": 6850,
      "chase": 6851,
      "chida": 6852,
      "##ramm": 6853,
      "##ilight": 6854,
      "##india": 6855,
      "fux": 6856,
      "furious": 6857,
      "diff": 6858,
      "dipl": 6859,
      "diarr": 6860,
      "imbal": 6861,
      "pocket": 6862,
      "cab": 6863,
      "cable": 6864,
      "caffe": 6865,
      "##ues": 6866,
      "plate": 6867,
      "placed": 6868,
      "unsp": 6869,
      "unac": 6870,
      "unatt": 6871,
      "workplace": 6872,
      "helper": 6873,
      "agon": 6874,
      "moi": 6875,
      "moon": 6876,
      "##ulting": 6877,
      "##ulance": 6878,
      "##uliv": 6879,
      "whose": 6880,
      "profess": 6881,
      "energ": 6882,
      "enthusi": 6883,
      "overnight": 6884,
      "tempt": 6885,
      "aflo": 6886,
      "spit": 6887,
      "spect": 6888,
      "spare": 6889,
      "spont": 6890,
      "spasm": 6891,
      "intimate": 6892,
      "clon": 6893,
      "clot": 6894,
      "climate": 6895,
      "##mpho": 6896,
      "trend": 6897,
      "troub": 6898,
      "goodness": 6899,
      "arch": 6900,
      "##iph": 6901,
      "mania": 6902,
      "somethings": 6903,
      "exposure": 6904,
      "adop": 6905,
      "adder": 6906,
      "advert": 6907,
      "nav": 6908,
      "named": 6909,
      "yours": 6910,
      "versa": 6911,
      "harsh": 6912,
      "dism": 6913,
      "disdain": 6914,
      "##mbaram": 6915,
      "scroll": 6916,
      "scrolling": 6917,
      "##iche": 6918,
      "premi": 6919,
      "longing": 6920,
      "attended": 6921,
      "twilight": 6922,
      "famous": 6923,
      "struck": 6924,
      "structure": 6925,
      "grr": 6926,
      "relent": 6927,
      "relap": 6928,
      "relev": 6929,
      "reliable": 6930,
      "downside": 6931,
      "##gggg": 6932,
      "##bell": 6933,
      "quant": 6934,
      "quand": 6935,
      "##erial": 6936,
      "companion": 6937,
      "completing": 6938,
      "shouldnt": 6939,
      "miscar": 6940,
      "##amm": 6941,
      "bland": 6942,
      "blaming": 6943,
      "boat": 6944,
      "boom": 6945,
      "appealing": 6946,
      "phd": 6947,
      "php": 6948,
      "painless": 6949,
      "##ites": 6950,
      "underlying": 6951,
      "coup": 6952,
      "mentality": 6953,
      "bugging": 6954,
      "healthier": 6955,
      "pride": 6956,
      "problematic": 6957,
      "kindly": 6958,
      "crypt": 6959,
      "accused": 6960,
      "flop": 6961,
      "##ogames": 6962,
      "sync": 6963,
      "untr": 6964,
      "emotionless": 6965,
      "carter": 6966,
      "carried": 6967,
      "slim": 6968,
      "probs": 6969,
      "foggy": 6970,
      "implement": 6971,
      "suicidality": 6972,
      "biting": 6973,
      "craig": 6974,
      "wana": 6975,
      "handful": 6976,
      "handsome": 6977,
      "psychos": 6978,
      "psychotherap": 6979,
      "advised": 6980,
      "advanced": 6981,
      "morn": 6982,
      "moral": 6983,
      "extended": 6984,
      "playlist": 6985,
      "curtain": 6986,
      "00mg": 6987,
      "##emed": 6988,
      "classroom": 6989,
      "##iction": 6990,
      "messing": 6991,
      "honesty": 6992,
      "reput": 6993,
      "trial": 6994,
      "tripping": 6995,
      "forgiveness": 6996,
      "sucking": 6997,
      "horny": 6998,
      "survey": 6999,
      "eats": 7000,
      "illusion": 7001,
      "borrow": 7002,
      "reset": 7003,
      "skipped": 7004,
      "twitch": 7005,
      "drift": 7006,
      "##ifting": 7007,
      "assure": 7008,
      "##fficient": 7009,
      "serial": 7010,
      "supermark": 7011,
      "entit": 7012,
      "unique": 7013,
      "pressured": 7014,
      "smash": 7015,
      "sounded": 7016,
      "snoo": 7017,
      "snack": 7018,
      "snowing": 7019,
      "snapped": 7020,
      "swollen": 7021,
      "dreamed": 7022,
      "lauren": 7023,
      "typical": 7024,
      "halfway": 7025,
      "hospitalized": 7026,
      "videogames": 7027,
      "announce": 7028,
      "slowing": 7029,
      "##zzzz": 7030,
      "countless": 7031,
      "drastically": 7032,
      "international": 7033,
      "delight": 7034,
      "urg": 7035,
      "stephan": 7036,
      "england": 7037,
      "expects": 7038,
      "imagined": 7039,
      "imaginary": 7040,
      "muslim": 7041,
      "swelling": 7042,
      "commented": 7043,
      "acceptable": 7044,
      "clobaz": 7045,
      "spirall": 7046,
      "embrace": 7047,
      "programm": 7048,
      "affair": 7049,
      "corrupt": 7050,
      "tremend": 7051,
      "indeed": 7052,
      "indiffer": 7053,
      "cycling": 7054,
      "escal": 7055,
      "escaping": 7056,
      "teaching": 7057,
      "aching": 7058,
      "##anyl": 7059,
      "starve": 7060,
      "starving": 7061,
      "starbuck": 7062,
      "visual": 7063,
      "polar": 7064,
      "counc": 7065,
      "heaven": 7066,
      "resulted": 7067,
      "occupied": 7068,
      "apologizing": 7069,
      "amazingly": 7070,
      "throwaway": 7071,
      "destroys": 7072,
      "shutting": 7073,
      "hasnt": 7074,
      "expressing": 7075,
      "grandmother": 7076,
      "burnout": 7077,
      "elev": 7078,
      "behave": 7079,
      "hideous": 7080,
      "##enging": 7081,
      "privacy": 7082,
      "chatted": 7083,
      "##iiii": 7084,
      "disappearing": 7085,
      "torment": 7086,
      "custody": 7087,
      "deval": 7088,
      "responding": 7089,
      "evol": 7090,
      "greed": 7091,
      "decides": 7092,
      "screamed": 7093,
      "utd": 7094,
      "switching": 7095,
      "involve": 7096,
      "unfor": 7097,
      "profound": 7098,
      "packed": 7099,
      "##itional": 7100,
      "marketing": 7101,
      "dancing": 7102,
      "moder": 7103,
      "shameful": 7104,
      "minimize": 7105,
      "reducing": 7106,
      "##hhhhh": 7107,
      "narrow": 7108,
      "surprising": 7109,
      "technical": 7110,
      "catching": 7111,
      "powerful": 7112,
      "intentionally": 7113,
      "fluoxetine": 7114,
      "ignores": 7115,
      "maln": 7116,
      "massively": 7117,
      "manipulate": 7118,
      "debate": 7119,
      "lympho": 7120,
      "##kkkk": 7121,
      "googling": 7122,
      "combined": 7123,
      "explod": 7124,
      "creeping": 7125,
      "jealousy": 7126,
      "violent": 7127,
      "violated": 7128,
      "mildly": 7129,
      "texas": 7130,
      "fancy": 7131,
      "referred": 7132,
      "lux": 7133,
      "salon": 7134,
      "salary": 7135,
      "##ounced": 7136,
      "whatsapp": 7137,
      "divorced": 7138,
      "dissociate": 7139,
      "preferably": 7140,
      "compete": 7141,
      "torturing": 7142,
      "procrastinate": 7143,
      "label": 7144,
      "rotting": 7145,
      "depends": 7146,
      "separated": 7147,
      "punching": 7148,
      "punched": 7149,
      "timing": 7150,
      "##yyyyyyyy": 7151,
      "bummer": 7152,
      "lifting": 7153,
      "continuously": 7154,
      "validate": 7155,
      "coughing": 7156,
      "absurd": 7157,
      "required": 7158,
      "dissapp": 7159,
      "recording": 7160,
      "rushing": 7161,
      "occurred": 7162,
      "cooky": 7163,
      "challenging": 7164,
      "immense": 7165,
      "ironic": 7166,
      "unemployment": 7167,
      "devastating": 7168,
      "macbook": 7169,
      "rollerco": 7170,
      "geor": 7171,
      "digital": 7172,
      "associate": 7173,
      "dysmor": 7174,
      "virus": 7175,
      "recognize": 7176,
      "irritated": 7177,
      "intelligence": 7178,
      "elle": 7179,
      "vitamin": 7180,
      "resentment": 7181,
      "surrounding": 7182,
      "fcking": 7183,
      "ipod": 7184,
      "guideline": 7185,
      "horrified": 7186,
      "perceived": 7187,
      "uncontrollably": 7188,
      "asthma": 7189,
      "basement": 7190,
      "##fao": 7191,
      "genetics": 7192,
      "encouraged": 7193,
      "encouraging": 7194,
      "volunte": 7195,
      "voluntarily": 7196,
      "transitioning": 7197,
      "select": 7198,
      "vibr": 7199,
      "unloved": 7200,
      "discipline": 7201,
      "misunderstood": 7202,
      "guaranteed": 7203,
      "declining": 7204,
      "crawl": 7205,
      "freelance": 7206,
      "legitimately": 7207,
      "automatically": 7208,
      "rapidly": 7209,
      "lmfao": 7210,
      "ambulance": 7211,
      "congrats": 7212,
      "browse": 7213,
      "launch": 7214,
      "irrespons": 7215,
      "gaslighting": 7216,
      "electricity": 7217,
      "##baby": 7218,
      "ordinary": 7219,
      "chaos": 7220,
      "backstory": 7221,
      "goddamn": 7222,
      "pursuing": 7223,
      "inadequacy": 7224,
      "jesus": 7225,
      "klonopin": 7226,
      "vhuliv": 7227,
      "##help": 7228,
      "##aintance": 7229,
      "exchange": 7230,
      "unnecessary": 7231,
      "clingy": 7232,
      "acquaintance": 7233,
      "subcons": 7234,
      "unexpected": 7235,
      "purposely": 7236,
      "electrical": 7237,
      "inappropriate": 7238,
      "tennis": 7239,
      "##hadza": 7240,
      "neutral": 7241,
      "##razole": 7242,
      "immature": 7243,
      "sacrif": 7244,
      "arrested": 7245,
      "disagree": 7246,
      "strangely": 7247,
      "phrase": 7248,
      "philos": 7249,
      "laughter": 7250,
      "grammar": 7251,
      "survivor": 7252,
      "aspergers": 7253,
      "exclusively": 7254,
      "counsellor": 7255,
      "citizen": 7256,
      "fentanyl": 7257,
      "tattoo": 7258,
      "tommcfly": 7259,
      "tolerance": 7260,
      "abilify": 7261,
      "atrocious": 7262,
      "seizure": 7263,
      "chinese": 7264,
      "chidambaram": 7265,
      "diploma": 7266,
      "imbalance": 7267,
      "caffeine": 7268,
      "professor": 7269,
      "afloat": 7270,
      "premiere": 7271,
      "psychosomatic": 7272,
      "supermarket": 7273,
      "clobazam": 7274,
      "indifferent": 7275,
      "rollercoaster": 7276,
      "vhulivhadza": 7277,
      "0hr": 7278,
      "ay": 7279,
      "ayy": 7280,
      "aka": 7281,
      "ako": 7282,
      "ahhh": 7283,
      "bj": 7284,
      "bust": 7285,
      "bod": 7286,
      "bday": 7287,
      "bise": 7288,
      "baw": 7289,
      "bbc": 7290,
      "cine": 7291,
      "cath": 7292,
      "dc": 7293,
      "dn": 7294,
      "dot": 7295,
      "dust": 7296,
      "delt": 7297,
      "eve": 7298,
      "fi": 7299,
      "fate": 7300,
      "fried": 7301,
      "gent": 7302,
      "gate": 7303,
      "gest": 7304,
      "gpa": 7305,
      "hunt": 7306,
      "hooking": 7307,
      "ily": 7308,
      "jay": 7309,
      "jumb": 7310,
      "kat": 7311,
      "kau": 7312,
      "kate": 7313,
      "kim": 7314,
      "lugg": 7315,
      "lined": 7316,
      "lsd": 7317,
      "linger": 7318,
      "length": 7319,
      "mant": 7320,
      "mri": 7321,
      "mere": 7322,
      "mam": 7323,
      "mike": 7324,
      "meas": 7325,
      "nig": 7326,
      "nik": 7327,
      "oo": 7328,
      "pv": 7329,
      "ping": 7330,
      "pow": 7331,
      "pep": 7332,
      "poo": 7333,
      "pool": 7334,
      "pig": 7335,
      "portion": 7336,
      "pilot": 7337,
      "rish": 7338,
      "rang": 7339,
      "rud": 7340,
      "sf": 7341,
      "sid": 7342,
      "sir": 7343,
      "sway": 7344,
      "sought": 7345,
      "sich": 7346,
      "sont": 7347,
      "tent": 7348,
      "tau": 7349,
      "txt": 7350,
      "troll": 7351,
      "umm": 7352,
      "vel": 7353,
      "vod": 7354,
      "vag": 7355,
      "vax": 7356,
      "ww": 7357,
      "wing": 7358,
      "wol": 7359,
      "wealth": 7360,
      "xp": 7361,
      "yuck": 7362,
      "york": 7363,
      "yuk": 7364,
      "##lr": 7365,
      "##len": 7366,
      "##live": 7367,
      "##look": 7368,
      "##lerate": 7369,
      "##iagn": 7370,
      "##iotic": 7371,
      "##hor": 7372,
      "##hew": 7373,
      "##oon": 7374,
      "##off": 7375,
      "##ollow": 7376,
      "##oster": 7377,
      "##bay": 7378,
      "##bear": 7379,
      "##bie": 7380,
      "##born": 7381,
      "##yss": 7382,
      "##yvan": 7383,
      "##rand": 7384,
      "##rence": 7385,
      "##av": 7386,
      "##ael": 7387,
      "##aked": 7388,
      "##fin": 7389,
      "##fic": 7390,
      "##fting": 7391,
      "##found": 7392,
      "##fach": 7393,
      "##wo": 7394,
      "##wk": 7395,
      "##was": 7396,
      "##wood": 7397,
      "##nh": 7398,
      "##nit": 7399,
      "##gage": 7400,
      "##umber": 7401,
      "##uana": 7402,
      "##sal": 7403,
      "##sus": 7404,
      "##pip": 7405,
      "##vant": 7406,
      "##vity": 7407,
      "##vable": 7408,
      "##tent": 7409,
      "##twe": 7410,
      "##md": 7411,
      "##met": 7412,
      "##mad": 7413,
      "##mil": 7414,
      "##mus": 7415,
      "##matter": 7416,
      "##kl": 7417,
      "##kr": 7418,
      "##kill": 7419,
      "tht": 7420,
      "thier": 7421,
      "##inj": 7422,
      "##inting": 7423,
      "##inity": 7424,
      "##inable": 7425,
      "anat": 7426,
      "tomb": 7427,
      "todd": 7428,
      "tossed": 7429,
      "tower": 7430,
      "tolerate": 7431,
      "##onent": 7432,
      "##onist": 7433,
      "##ena": 7434,
      "##atonin": 7435,
      "##oul": 7436,
      "thec": 7437,
      "theme": 7438,
      "##anz": 7439,
      "##ancing": 7440,
      "##sth": 7441,
      "##ste": 7442,
      "##stal": 7443,
      "##stone": 7444,
      "##stra": 7445,
      "myth": 7446,
      "##ela": 7447,
      "##els": 7448,
      "##eling": 7449,
      "##ths": 7450,
      "hay": 7451,
      "hav": 7452,
      "hazy": 7453,
      "hawa": 7454,
      "italian": 7455,
      "##omen": 7456,
      "inher": 7457,
      "##isa": 7458,
      "##isible": 7459,
      "##lection": 7460,
      "meh": 7461,
      "mexic": 7462,
      "liar": 7463,
      "##ayl": 7464,
      "##kest": 7465,
      "##icag": 7466,
      "##arn": 7467,
      "onset": 7468,
      "ongoing": 7469,
      "stating": 7470,
      "stared": 7471,
      "stitch": 7472,
      "stoned": 7473,
      "stealing": 7474,
      "wif": 7475,
      "wild": 7476,
      "##itly": 7477,
      "##idi": 7478,
      "sock": 7479,
      "soda": 7480,
      "sobbing": 7481,
      "##entic": 7482,
      "wale": 7483,
      "##ala": 7484,
      "##alin": 7485,
      "##alog": 7486,
      "##epr": 7487,
      "##eps": 7488,
      "##chat": 7489,
      "##char": 7490,
      "##mes": 7491,
      "##rier": 7492,
      "shite": 7493,
      "shall": 7494,
      "shred": 7495,
      "shorter": 7496,
      "shaped": 7497,
      "goin": 7498,
      "##cky": 7499,
      "##opic": 7500,
      "##opilot": 7501,
      "##ophobic": 7502,
      "##eres": 7503,
      "worm": 7504,
      "abit": 7505,
      "abro": 7506,
      "abrupt": 7507,
      "##earm": 7508,
      "alike": 7509,
      "west": 7510,
      "##aux": 7511,
      "sux": 7512,
      "sushi": 7513,
      "##ado": 7514,
      "gettin": 7515,
      "novel": 7516,
      "##few": 7517,
      "knight": 7518,
      "amate": 7519,
      "amber": 7520,
      "##ros": 7521,
      "reser": 7522,
      "remor": 7523,
      "recess": 7524,
      "rehab": 7525,
      "##urr": 7526,
      "##urous": 7527,
      "##urning": 7528,
      "upbr": 7529,
      "sequence": 7530,
      "whatnot": 7531,
      "frame": 7532,
      "dey": 7533,
      "deemed": 7534,
      "##ategy": 7535,
      "fash": 7536,
      "##odone": 7537,
      "exten": 7538,
      "exited": 7539,
      "cond": 7540,
      "conser": 7541,
      "confession": 7542,
      "peut": 7543,
      "hehe": 7544,
      "chu": 7545,
      "champ": 7546,
      "china": 7547,
      "chicag": 7548,
      "##ationally": 7549,
      "##rah": 7550,
      "fuel": 7551,
      "fuzzy": 7552,
      "mud": 7553,
      "mund": 7554,
      "polic": 7555,
      "cam": 7556,
      "plug": 7557,
      "##astroph": 7558,
      "unp": 7559,
      "unalive": 7560,
      "savi": 7561,
      "sabot": 7562,
      "agent": 7563,
      "mocha": 7564,
      "##ula": 7565,
      "enroll": 7566,
      "happily": 7567,
      "overweight": 7568,
      "backed": 7569,
      "spar": 7570,
      "spew": 7571,
      "spike": 7572,
      "spray": 7573,
      "intu": 7574,
      "intensive": 7575,
      "coast": 7576,
      "clip": 7577,
      "closure": 7578,
      "brat": 7579,
      "brink": 7580,
      "##ief": 7581,
      "josh": 7582,
      "trade": 7583,
      "trained": 7584,
      "trophy": 7585,
      "arse": 7586,
      "arent": 7587,
      "argue": 7588,
      "artery": 7589,
      "leth": 7590,
      "lect": 7591,
      "##ista": 7592,
      "stumble": 7593,
      "offended": 7594,
      "##iped": 7595,
      "endure": 7596,
      "endured": 7597,
      "anyones": 7598,
      "aftermath": 7599,
      "explo": 7600,
      "##icky": 7601,
      "##ola": 7602,
      "##olerich": 7603,
      "##igate": 7604,
      "##igious": 7605,
      "##usc": 7606,
      "##usk": 7607,
      "harming": 7608,
      "disney": 7609,
      "##mbo": 7610,
      "scan": 7611,
      "scale": 7612,
      "monde": 7613,
      "monkey": 7614,
      "preface": 7615,
      "keen": 7616,
      "##ablish": 7617,
      "##aborate": 7618,
      "twenty": 7619,
      "strategy": 7620,
      "relat": 7621,
      "relive": 7622,
      "activ": 7623,
      "asian": 7624,
      "leak": 7625,
      "##bee": 7626,
      "##izable": 7627,
      "carefree": 7628,
      "paris": 7629,
      "blat": 7630,
      "apprent": 7631,
      "contrad": 7632,
      "undiagn": 7633,
      "##moil": 7634,
      "firstly": 7635,
      "##ached": 7636,
      "acute": 7637,
      "undergr": 7638,
      "underweight": 7639,
      "bucket": 7640,
      "recl": 7641,
      "rolled": 7642,
      "robbing": 7643,
      "robbed": 7644,
      "decently": 7645,
      "hearted": 7646,
      "supply": 7647,
      "suppress": 7648,
      "oper": 7649,
      "puzzle": 7650,
      "flag": 7651,
      "sociology": 7652,
      "understandable": 7653,
      "slam": 7654,
      "impulsive": 7655,
      "latter": 7656,
      "interper": 7657,
      "cramp": 7658,
      "handed": 7659,
      "handled": 7660,
      "sickly": 7661,
      "psychopath": 7662,
      "incase": 7663,
      "earn": 7664,
      "morph": 7665,
      "curve": 7666,
      "00k": 7667,
      "commited": 7668,
      "classic": 7669,
      "apr": 7670,
      "guest": 7671,
      "##essment": 7672,
      "studio": 7673,
      "remembers": 7674,
      "mission": 7675,
      "##liness": 7676,
      "trivi": 7677,
      "instruction": 7678,
      "##osal": 7679,
      "##quent": 7680,
      "horrid": 7681,
      "trap": 7682,
      "loner": 7683,
      "##ixable": 7684,
      "security": 7685,
      "skype": 7686,
      "twitching": 7687,
      "addressed": 7688,
      "marij": 7689,
      "insist": 7690,
      "passively": 7691,
      "easiest": 7692,
      "##uses": 7693,
      "deepest": 7694,
      "entry": 7695,
      "subscri": 7696,
      "subtle": 7697,
      "bury": 7698,
      "waitress": 7699,
      "defl": 7700,
      "defend": 7701,
      "hangover": 7702,
      "swall": 7703,
      "typically": 7704,
      "smth": 7705,
      "statement": 7706,
      "##ductive": 7707,
      "angst": 7708,
      "effexor": 7709,
      "remark": 7710,
      "remained": 7711,
      "##ismatic": 7712,
      "distanced": 7713,
      "disappoint": 7714,
      "sett": 7715,
      "##phia": 7716,
      "returning": 7717,
      "appreciation": 7718,
      "solved": 7719,
      "solace": 7720,
      "invisible": 7721,
      "stepped": 7722,
      "fixated": 7723,
      "##licitly": 7724,
      "imagination": 7725,
      "generic": 7726,
      "answering": 7727,
      "freely": 7728,
      "layer": 7729,
      "glue": 7730,
      "legend": 7731,
      "peacefully": 7732,
      "ramp": 7733,
      "##ission": 7734,
      "calming": 7735,
      "establish": 7736,
      "responder": 7737,
      "reflex": 7738,
      "reflection": 7739,
      "annoys": 7740,
      "indo": 7741,
      "indirect": 7742,
      "cyn": 7743,
      "autopilot": 7744,
      "allows": 7745,
      "articul": 7746,
      "##upro": 7747,
      "nonetheless": 7748,
      "editing": 7749,
      "burdening": 7750,
      "##aughty": 7751,
      "starved": 7752,
      "southern": 7753,
      "sunsh": 7754,
      "concerning": 7755,
      "simpson": 7756,
      "turmoil": 7757,
      "catastroph": 7758,
      "ridden": 7759,
      "weakness": 7760,
      "charismatic": 7761,
      "accountability": 7762,
      "fitting": 7763,
      "grave": 7764,
      "grace": 7765,
      "psychology": 7766,
      "destroying": 7767,
      "shuts": 7768,
      "processing": 7769,
      "blacked": 7770,
      "rocky": 7771,
      "serve": 7772,
      "served": 7773,
      "director": 7774,
      "accompan": 7775,
      "isolating": 7776,
      "dumber": 7777,
      "practicing": 7778,
      "practiced": 7779,
      "army": 7780,
      "pretended": 7781,
      "survival": 7782,
      "reminding": 7783,
      "quieter": 7784,
      "quietly": 7785,
      "produce": 7786,
      "immediate": 7787,
      "bleh": 7788,
      "soulmate": 7789,
      "billion": 7790,
      "northern": 7791,
      "floating": 7792,
      "victory": 7793,
      "auf": 7794,
      "jean": 7795,
      "entering": 7796,
      "educate": 7797,
      "fourth": 7798,
      "00000": 7799,
      "paperwork": 7800,
      "utility": 7801,
      "unfixable": 7802,
      "temper": 7803,
      "accomplishing": 7804,
      "gunna": 7805,
      "packing": 7806,
      "reported": 7807,
      "moderate": 7808,
      "biolog": 7809,
      "insomniac": 7810,
      "grounding": 7811,
      "popped": 7812,
      "##cony": 7813,
      "fluid": 7814,
      "cowardly": 7815,
      "essential": 7816,
      "netfl": 7817,
      "##craft": 7818,
      "platitude": 7819,
      "brill": 7820,
      "crossed": 7821,
      "debating": 7822,
      "lyric": 7823,
      "snapchat": 7824,
      "qualification": 7825,
      "judgement": 7826,
      "matt": 7827,
      "material": 7828,
      "lapse": 7829,
      "claustr": 7830,
      "crucial": 7831,
      "referring": 7832,
      "nicolerich": 7833,
      "##walk": 7834,
      "located": 7835,
      "dissociating": 7836,
      "sweaty": 7837,
      "scarred": 7838,
      "electro": 7839,
      "auntie": 7840,
      "tasted": 7841,
      "timeline": 7842,
      "talented": 7843,
      "balcony": 7844,
      "melbourne": 7845,
      "melatonin": 7846,
      "oriented": 7847,
      "homelessness": 7848,
      "blessed": 7849,
      "traveling": 7850,
      "hotlines": 7851,
      "occurrence": 7852,
      "hookup": 7853,
      "worsening": 7854,
      "desperation": 7855,
      "darkest": 7856,
      "magic": 7857,
      "magically": 7858,
      "wrest": 7859,
      "providing": 7860,
      "consciousness": 7861,
      "nyc": 7862,
      "tumor": 7863,
      "vaccinated": 7864,
      "casual": 7865,
      "unworth": 7866,
      "transparent": 7867,
      "acknowled": 7868,
      "variety": 7869,
      "alternate": 7870,
      "choked": 7871,
      "cheaper": 7872,
      "flooded": 7873,
      "oblig": 7874,
      "obligation": 7875,
      "grieve": 7876,
      "erase": 7877,
      "global": 7878,
      "canceled": 7879,
      "facade": 7880,
      "flirted": 7881,
      "benzo": 7882,
      "irritating": 7883,
      "##standing": 7884,
      "defeat": 7885,
      "originally": 7886,
      "dutifully": 7887,
      "dominated": 7888,
      "spinning": 7889,
      "robot": 7890,
      "confrontation": 7891,
      "horrific": 7892,
      "humiliation": 7893,
      "humiliated": 7894,
      "disturbing": 7895,
      "delusional": 7896,
      "demanding": 7897,
      "briefly": 7898,
      "relying": 7899,
      "rabies": 7900,
      "anonymously": 7901,
      "excluded": 7902,
      "swimming": 7903,
      "ramble": 7904,
      "clarity": 7905,
      "impression": 7906,
      "dissapointed": 7907,
      "dedic": 7908,
      "gagging": 7909,
      "discipl": 7910,
      "guarantee": 7911,
      "crawling": 7912,
      "participate": 7913,
      "mutual": 7914,
      "twisted": 7915,
      "princess": 7916,
      "influence": 7917,
      "contributing": 7918,
      "##iversary": 7919,
      "##burst": 7920,
      "stretch": 7921,
      "external": 7922,
      "loathing": 7923,
      "african": 7924,
      "sprint": 7925,
      "unconscious": 7926,
      "designed": 7927,
      "privilege": 7928,
      "##yrockets": 7929,
      "aripip": 7930,
      "eyed": 7931,
      "einfach": 7932,
      "kitty": 7933,
      "meltdown": 7934,
      "nephew": 7935,
      "praise": 7936,
      "radio": 7937,
      "stigma": 7938,
      "shattered": 7939,
      "exaggerating": 7940,
      "ensure": 7941,
      "intimacy": 7942,
      "clueless": 7943,
      "closet": 7944,
      "trazodone": 7945,
      "metoprolol": 7946,
      "explanation": 7947,
      "economic": 7948,
      "euphoric": 7949,
      "athlete": 7950,
      "lisp": 7951,
      "rustyrockets": 7952,
      "signing": 7953,
      "virtual": 7954,
      "dopamine": 7955,
      "recipe": 7956,
      "conquered": 7957,
      "captain": 7958,
      "inconvenience": 7959,
      "crumbling": 7960,
      "distraught": 7961,
      "confidentiality": 7962,
      "unbelievably": 7963,
      "cuddling": 7964,
      "nihilistic": 7965,
      "austin": 7966,
      "gyel": 7967,
      "mountain": 7968,
      "oops": 7969,
      "##caine": 7970,
      "##uthu": 7971,
      "festival": 7972,
      "alpha": 7973,
      "diarrhea": 7974,
      "unattract": 7975,
      "energetic": 7976,
      "tempted": 7977,
      "adopted": 7978,
      "adderall": 7979,
      "relevant": 7980,
      "companionship": 7981,
      "miscarriage": 7982,
      "untrue": 7983,
      "reputation": 7984,
      "entitled": 7985,
      "stephanie": 7986,
      "spiralling": 7987,
      "starbucks": 7988,
      "elevated": 7989,
      "lymphocy": 7990,
      "dysmorphia": 7991,
      "philosophy": 7992,
      "0hrs": 7993,
      "ayy9": 7994,
      "bisexual": 7995,
      "cinema": 7996,
      "gesture": 7997,
      "luggage": 7998,
      "mantra": 7999,
      "powder": 8000,
      "pepper": 8001,
      "vodka": 8002,
      "remorse": 8003,
      "upbringing": 8004,
      "fashion": 8005,
      "chicago": 8006,
      "policy": 8007,
      "apprentice": 8008,
      "undiagnosed": 8009,
      "undergrad": 8010,
      "interpersonal": 8011,
      "marijuana": 8012,
      "netflix": 8013,
      "nicolerichie": 8014,
      "aripiprazole": 8015,
      "0l": 8016,
      "0y": 8017,
      "0m": 8018,
      "09": 8019,
      "ax": 8020,
      "agh": 8021,
      "aqu": 8022,
      "aub": 8023,
      "bd": 8024,
      "bk": 8025,
      "bry": 8026,
      "bun": 8027,
      "bounce": 8028,
      "cd": 8029,
      "cer": 8030,
      "cel": 8031,
      "cere": 8032,
      "cate": 8033,
      "cater": 8034,
      "citation": 8035,
      "dt": 8036,
      "dwe": 8037,
      "dye": 8038,
      "eth": 8039,
      "echo": 8040,
      "ebay": 8041,
      "furn": 8042,
      "fib": 8043,
      "font": 8044,
      "fading": 8045,
      "faux": 8046,
      "gc": 8047,
      "gb": 8048,
      "gust": 8049,
      "gang": 8050,
      "gram": 8051,
      "gmt": 8052,
      "hd": 8053,
      "hw": 8054,
      "hp": 8055,
      "hind": 8056,
      "hired": 8057,
      "hilar": 8058,
      "husk": 8059,
      "icu": 8060,
      "jl": 8061,
      "jp": 8062,
      "jk": 8063,
      "jill": 8064,
      "jod": 8065,
      "jul": 8066,
      "jared": 8067,
      "jord": 8068,
      "jenn": 8069,
      "james": 8070,
      "kik": 8071,
      "ketamine": 8072,
      "lump": 8073,
      "ldn": 8074,
      "md": 8075,
      "mp": 8076,
      "mau": 8077,
      "map": 8078,
      "mary": 8079,
      "magn": 8080,
      "mmm": 8081,
      "mph": 8082,
      "nt": 8083,
      "nz": 8084,
      "nie": 8085,
      "nft": 8086,
      "naughty": 8087,
      "oy": 8088,
      "ov": 8089,
      "oily": 8090,
      "ostra": 8091,
      "pj": 8092,
      "pir": 8093,
      "pac": 8094,
      "pink": 8095,
      "pier": 8096,
      "pork": 8097,
      "punk": 8098,
      "rs": 8099,
      "rach": 8100,
      "range": 8101,
      "rachel": 8102,
      "rationally": 8103,
      "sth": 8104,
      "sau": 8105,
      "sour": 8106,
      "soup": 8107,
      "sized": 8108,
      "tj": 8109,
      "tin": 8110,
      "ted": 8111,
      "tel": 8112,
      "tro": 8113,
      "tia": 8114,
      "tier": 8115,
      "tuck": 8116,
      "ticking": 8117,
      "tune": 8118,
      "ub": 8119,
      "uber": 8120,
      "vou": 8121,
      "vast": 8122,
      "venge": 8123,
      "vivid": 8124,
      "vyvan": 8125,
      "woo": 8126,
      "wra": 8127,
      "wand": 8128,
      "wool": 8129,
      "xo": 8130,
      "xray": 8131,
      "y0": 8132,
      "yad": 8133,
      "yung": 8134,
      "zd": 8135,
      "zu": 8136,
      "zur": 8137,
      "zoned": 8138,
      "##lit": 8139,
      "##laf": 8140,
      "##lberg": 8141,
      "##iq": 8142,
      "##illy": 8143,
      "##ias": 8144,
      "##cm": 8145,
      "##cut": 8146,
      "##cis": 8147,
      "##cal": 8148,
      "##cake": 8149,
      "##cool": 8150,
      "##call": 8151,
      "##comm": 8152,
      "##hg": 8153,
      "##hq": 8154,
      "##house": 8155,
      "##hero": 8156,
      "##eme": 8157,
      "##eur": 8158,
      "##empt": 8159,
      "##oly": 8160,
      "##oire": 8161,
      "##oading": 8162,
      "##dh": 8163,
      "##ded": 8164,
      "##did": 8165,
      "##dad": 8166,
      "##des": 8167,
      "##dona": 8168,
      "##bv": 8169,
      "##bat": 8170,
      "##bet": 8171,
      "##bone": 8172,
      "##bag": 8173,
      "##yc": 8174,
      "##rw": 8175,
      "##rend": 8176,
      "##ration": 8177,
      "##real": 8178,
      "##rained": 8179,
      "##ratic": 8180,
      "##ritis": 8181,
      "##ae": 8182,
      "##ais": 8183,
      "##fm": 8184,
      "##f9": 8185,
      "##fill": 8186,
      "##fish": 8187,
      "##fall": 8188,
      "##wb": 8189,
      "##wt": 8190,
      "##wing": 8191,
      "##will": 8192,
      "##wich": 8193,
      "##nter": 8194,
      "##nage": 8195,
      "##norm": 8196,
      "##gar": 8197,
      "##gun": 8198,
      "##gia": 8199,
      "##gaf": 8200,
      "##uro": 8201,
      "##uild": 8202,
      "##sme": 8203,
      "##sad": 8204,
      "##sand": 8205,
      "##sie": 8206,
      "##pin": 8207,
      "##press": 8208,
      "##point": 8209,
      "##vn": 8210,
      "##vp": 8211,
      "##ville": 8212,
      "##vador": 8213,
      "##tn": 8214,
      "##tly": 8215,
      "##table": 8216,
      "##tail": 8217,
      "##mly": 8218,
      "##mind": 8219,
      "##kc": 8220,
      "##km": 8221,
      "##kick": 8222,
      "##zu": 8223,
      "##zp": 8224,
      "##jy": 8225,
      "##jack": 8226,
      "thc": 8227,
      "thom": 8228,
      "thri": 8229,
      "thail": 8230,
      "thigh": 8231,
      "thrive": 8232,
      "##inner": 8233,
      "##erion": 8234,
      "anch": 8235,
      "toe": 8236,
      "toooo": 8237,
      "##oner": 8238,
      "##ongest": 8239,
      "##encer": 8240,
      "##enerate": 8241,
      "##enomen": 8242,
      "##ority": 8243,
      "##orph": 8244,
      "##ouver": 8245,
      "##oura": 8246,
      "##sty": 8247,
      "##str": 8248,
      "##ston": 8249,
      "##stall": 8250,
      "##stigious": 8251,
      "##thest": 8252,
      "##thew": 8253,
      "##eab": 8254,
      "##eauc": 8255,
      "haul": 8256,
      "hamm": 8257,
      "bell": 8258,
      "itd": 8259,
      "##utic": 8260,
      "##omo": 8261,
      "##omore": 8262,
      "##rett": 8263,
      "ine": 8264,
      "inad": 8265,
      "inhal": 8266,
      "##isoci": 8267,
      "##lest": 8268,
      "mein": 8269,
      "megan": 8270,
      "lily": 8271,
      "liber": 8272,
      "licking": 8273,
      "whit": 8274,
      "whack": 8275,
      "whiny": 8276,
      "##etly": 8277,
      "##otting": 8278,
      "##ssa": 8279,
      "##ssle": 8280,
      "##vered": 8281,
      "##icable": 8282,
      "##ars": 8283,
      "##armed": 8284,
      "stone": 8285,
      "stack": 8286,
      "steal": 8287,
      "stated": 8288,
      "stew": 8289,
      "stiff": 8290,
      "formed": 8291,
      "wik": 8292,
      "wipe": 8293,
      "##iture": 8294,
      "##itory": 8295,
      "##itivity": 8296,
      "##idine": 8297,
      "##idently": 8298,
      "sof": 8299,
      "solo": 8300,
      "##uster": 8301,
      "##entin": 8302,
      "##entlich": 8303,
      "wareh": 8304,
      "justif": 8305,
      "##chen": 8306,
      "##chem": 8307,
      "##meme": 8308,
      "##ante": 8309,
      "##antas": 8310,
      "##antically": 8311,
      "##rig": 8312,
      "shelf": 8313,
      "sham": 8314,
      "shave": 8315,
      "shallow": 8316,
      "anyhow": 8317,
      "notre": 8318,
      "donc": 8319,
      "donor": 8320,
      "donkey": 8321,
      "candy": 8322,
      "abort": 8323,
      "abusing": 8324,
      "abyss": 8325,
      "abnorm": 8326,
      "reader": 8327,
      "##earn": 8328,
      "##ears": 8329,
      "##eart": 8330,
      "ala": 8331,
      "alcho": 8332,
      "wean": 8333,
      "wether": 8334,
      "wester": 8335,
      "##aun": 8336,
      "sufficient": 8337,
      "##ady": 8338,
      "##iry": 8339,
      "noone": 8340,
      "node": 8341,
      "##feed": 8342,
      "##tering": 8343,
      "kno": 8344,
      "allowing": 8345,
      "ama": 8346,
      "##imes": 8347,
      "##ppiness": 8348,
      "##rod": 8349,
      "##roid": 8350,
      "reth": 8351,
      "rewr": 8352,
      "outs": 8353,
      "outing": 8354,
      "outlook": 8355,
      "outburst": 8356,
      "upside": 8357,
      "semb": 8358,
      "##xiety": 8359,
      "depak": 8360,
      "##geous": 8361,
      "fran": 8362,
      "deed": 8363,
      "desc": 8364,
      "fab": 8365,
      "faut": 8366,
      "fare": 8367,
      "faire": 8368,
      "facial": 8369,
      "##illa": 8370,
      "##illor": 8371,
      "exceed": 8372,
      "condu": 8373,
      "loll": 8374,
      "looming": 8375,
      "##artan": 8376,
      "pem": 8377,
      "daycare": 8378,
      "chi": 8379,
      "chip": 8380,
      "chess": 8381,
      "chos": 8382,
      "chuck": 8383,
      "chunk": 8384,
      "hadnt": 8385,
      "##rast": 8386,
      "##ramatic": 8387,
      "dive": 8388,
      "digest": 8389,
      "digging": 8390,
      "immer": 8391,
      "poll": 8392,
      "pointing": 8393,
      "caved": 8394,
      "herb": 8395,
      "coma": 8396,
      "comic": 8397,
      "##imed": 8398,
      "william": 8399,
      "unit": 8400,
      "unsu": 8401,
      "unrea": 8402,
      "safer": 8403,
      "agitated": 8404,
      "##inem": 8405,
      "##inement": 8406,
      "##uling": 8407,
      "prod": 8408,
      "proved": 8409,
      "enf": 8410,
      "happend": 8411,
      "overtime": 8412,
      "overcoming": 8413,
      "##sonable": 8414,
      "##apt": 8415,
      "##aphor": 8416,
      "spa": 8417,
      "spite": 8418,
      "spartan": 8419,
      "intake": 8420,
      "integr": 8421,
      "coop": 8422,
      "cocaine": 8423,
      "##unked": 8424,
      "clen": 8425,
      "clown": 8426,
      "permission": 8427,
      "##ciating": 8428,
      "##iee": 8429,
      "joker": 8430,
      "trop": 8431,
      "trough": 8432,
      "trading": 8433,
      "fucker": 8434,
      "arvo": 8435,
      "##athom": 8436,
      "leather": 8437,
      "##spot": 8438,
      "offend": 8439,
      "offline": 8440,
      "##ourished": 8441,
      "##intage": 8442,
      "afterlife": 8443,
      "lastly": 8444,
      "expand": 8445,
      "ada": 8446,
      "adam": 8447,
      "scheme": 8448,
      "nach": 8449,
      "naked": 8450,
      "##igg": 8451,
      "##usation": 8452,
      "##usely": 8453,
      "yourselves": 8454,
      "display": 8455,
      "disli": 8456,
      "##mbled": 8457,
      "scot": 8458,
      "scam": 8459,
      "scored": 8460,
      "prestigious": 8461,
      "##agi": 8462,
      "longco": 8463,
      "kev": 8464,
      "kelly": 8465,
      "attrib": 8466,
      "rightfully": 8467,
      "streak": 8468,
      "strongest": 8469,
      "gran": 8470,
      "grant": 8471,
      "reliving": 8472,
      "##news": 8473,
      "leap": 8474,
      "league": 8475,
      "realising": 8476,
      "##izer": 8477,
      "beforehand": 8478,
      "compar": 8479,
      "compulsive": 8480,
      "medically": 8481,
      "careg": 8482,
      "shouldve": 8483,
      "##arded": 8484,
      "missy": 8485,
      "blend": 8486,
      "boil": 8487,
      "elim": 8488,
      "elaborate": 8489,
      "wrenching": 8490,
      "idol": 8491,
      "append": 8492,
      "phenomen": 8493,
      "painfully": 8494,
      "shitless": 8495,
      "##moindia": 8496,
      "elsewhere": 8497,
      "partial": 8498,
      "underne": 8499,
      "newborn": 8500,
      "newfound": 8501,
      "buff": 8502,
      "bugger": 8503,
      "hosting": 8504,
      "recre": 8505,
      "parenting": 8506,
      "prone": 8507,
      "print": 8508,
      "guide": 8509,
      "emily": 8510,
      "emma": 8511,
      "eminem": 8512,
      "minded": 8513,
      "postnat": 8514,
      "##tened": 8515,
      "oldest": 8516,
      "reasonable": 8517,
      "##urner": 8518,
      "ops": 8519,
      "puking": 8520,
      "##scott": 8521,
      "accent": 8522,
      "accum": 8523,
      "accusation": 8524,
      "attacking": 8525,
      "flick": 8526,
      "sociable": 8527,
      "fails": 8528,
      "anxiousness": 8529,
      "carpet": 8530,
      "slide": 8531,
      "slap": 8532,
      "slice": 8533,
      "slapped": 8534,
      "##sert": 8535,
      "probation": 8536,
      "impressed": 8537,
      "##ultaneously": 8538,
      "interfer": 8539,
      "interrupted": 8540,
      "cram": 8541,
      "psycho": 8542,
      "usa": 8543,
      "##acart": 8544,
      "incor": 8545,
      "advise": 8546,
      "advises": 8547,
      "wronged": 8548,
      "curly": 8549,
      "greater": 8550,
      "commiting": 8551,
      "feared": 8552,
      "mini": 8553,
      "##icted": 8554,
      "medicate": 8555,
      "kidney": 8556,
      "suffers": 8557,
      "##esse": 8558,
      "confinement": 8559,
      "sims": 8560,
      "simultaneously": 8561,
      "remembering": 8562,
      "##ibiotic": 8563,
      "literature": 8564,
      "maker": 8565,
      "missin": 8566,
      "hella": 8567,
      "barking": 8568,
      "barley": 8569,
      "repub": 8570,
      "excru": 8571,
      "ohhh": 8572,
      "consent": 8573,
      "forgave": 8574,
      "cheat": 8575,
      "##morning": 8576,
      "instacart": 8577,
      "obm": 8578,
      "obsc": 8579,
      "stupidly": 8580,
      "ideally": 8581,
      "##vious": 8582,
      "listed": 8583,
      "horse": 8584,
      "horiz": 8585,
      "movement": 8586,
      "surgeon": 8587,
      "restart": 8588,
      "traced": 8589,
      "##ypical": 8590,
      "resched": 8591,
      "resusc": 8592,
      "foundation": 8593,
      "secure": 8594,
      "regrett": 8595,
      "tonite": 8596,
      "skint": 8597,
      "skyrocket": 8598,
      "skull": 8599,
      "##version": 8600,
      "drifting": 8601,
      "redo": 8602,
      "redeem": 8603,
      "sidebar": 8604,
      "assessment": 8605,
      "marley": 8606,
      "##ensely": 8607,
      "queer": 8608,
      "queen": 8609,
      "##solved": 8610,
      "##appy": 8611,
      "##ords": 8612,
      "##ordon": 8613,
      "motherhood": 8614,
      "superhero": 8615,
      "entity": 8616,
      "entail": 8617,
      "subs": 8618,
      "pressuring": 8619,
      "bureauc": 8620,
      "desert": 8621,
      "sounding": 8622,
      "sniff": 8623,
      "##lov": 8624,
      "epiph": 8625,
      "learnt": 8626,
      "smack": 8627,
      "infid": 8628,
      "infact": 8629,
      "inflict": 8630,
      "##azine": 8631,
      "avoir": 8632,
      "walmart": 8633,
      "youngest": 8634,
      "texture": 8635,
      "anniversary": 8636,
      "antisoci": 8637,
      "antibiotic": 8638,
      "remar": 8639,
      "metal": 8640,
      "metaphor": 8641,
      "drawn": 8642,
      "drastic": 8643,
      "setup": 8644,
      "retro": 8645,
      "retain": 8646,
      "uncl": 8647,
      "appreciating": 8648,
      "##elle": 8649,
      "delicious": 8650,
      "delivers": 8651,
      "maint": 8652,
      "urban": 8653,
      "invitation": 8654,
      "stepdad": 8655,
      "supposedly": 8656,
      "optim": 8657,
      "babys": 8658,
      "##ahlberg": 8659,
      "imaginable": 8660,
      "speaker": 8661,
      "forgetful": 8662,
      "##ocr": 8663,
      "##ocard": 8664,
      "proposal": 8665,
      "nearing": 8666,
      "sorta": 8667,
      "lego": 8668,
      "creates": 8669,
      "rav": 8670,
      "raising": 8671,
      "overwhelms": 8672,
      "calmer": 8673,
      "muster": 8674,
      "warr": 8675,
      "corn": 8676,
      "correl": 8677,
      "moody": 8678,
      "darker": 8679,
      "indic": 8680,
      "india": 8681,
      "madness": 8682,
      "madden": 8683,
      "artific": 8684,
      "prescribe": 8685,
      "detect": 8686,
      "pale": 8687,
      "tweeter": 8688,
      "tweeting": 8689,
      "signal": 8690,
      "similarly": 8691,
      "lacking": 8692,
      "terrifies": 8693,
      "edible": 8694,
      "quicker": 8695,
      "shove": 8696,
      "embarass": 8697,
      "prompt": 8698,
      "formally": 8699,
      "natal": 8700,
      "valium": 8701,
      "valued": 8702,
      "property": 8703,
      "mga": 8704,
      "visible": 8705,
      "visibly": 8706,
      "polish": 8707,
      "turd": 8708,
      "convincing": 8709,
      "showered": 8710,
      "##ashed": 8711,
      "examiner": 8712,
      "dougie": 8713,
      "offering": 8714,
      "footage": 8715,
      "definition": 8716,
      "ughh": 8717,
      "degenerate": 8718,
      "apologised": 8719,
      "regretting": 8720,
      "grabbed": 8721,
      "alongside": 8722,
      "traumatizing": 8723,
      "overdrive": 8724,
      "overdramatic": 8725,
      "interacting": 8726,
      "grandfather": 8727,
      "uncomfort": 8728,
      "capital": 8729,
      "capability": 8730,
      "rocket": 8731,
      "sensitivity": 8732,
      "##bob": 8733,
      "behaving": 8734,
      "bench": 8735,
      "windy": 8736,
      "appears": 8737,
      "appeared": 8738,
      "progressive": 8739,
      "silently": 8740,
      "##iewahlberg": 8741,
      "ashley": 8742,
      "##mpathetic": 8743,
      "relieving": 8744,
      "included": 8745,
      "includes": 8746,
      "admitting": 8747,
      "werent": 8748,
      "boredom": 8749,
      "apparent": 8750,
      "achieving": 8751,
      "auss": 8752,
      "evicted": 8753,
      "orgasm": 8754,
      "employment": 8755,
      "##rrrr": 8756,
      "smartest": 8757,
      "deleting": 8758,
      "involving": 8759,
      "filed": 8760,
      "feeding": 8761,
      "freakin": 8762,
      "unfollow": 8763,
      "detailed": 8764,
      "boost": 8765,
      "booster": 8766,
      "booze": 8767,
      "boohoo": 8768,
      "ukraine": 8769,
      "profusely": 8770,
      "bien": 8771,
      "biking": 8772,
      "biology": 8773,
      "costoch": 8774,
      "encounter": 8775,
      "necessity": 8776,
      "grounded": 8777,
      "##hahaha": 8778,
      "centre": 8779,
      "centered": 8780,
      "central": 8781,
      "officer": 8782,
      "prevented": 8783,
      "impacting": 8784,
      "communicating": 8785,
      "malfunction": 8786,
      "massage": 8787,
      "threaten": 8788,
      "loading": 8789,
      "manipulating": 8790,
      "brian": 8791,
      "brace": 8792,
      "crossing": 8793,
      "pourra": 8794,
      "##force": 8795,
      "receiving": 8796,
      "unhappiness": 8797,
      "replay": 8798,
      "fmla": 8799,
      "lymph": 8800,
      "seperate": 8801,
      "explos": 8802,
      "organize": 8803,
      "odds": 8804,
      "rapist": 8805,
      "##blond": 8806,
      "##guy": 8807,
      "violation": 8808,
      "maturity": 8809,
      "gifted": 8810,
      "brighter": 8811,
      "dynam": 8812,
      "arrives": 8813,
      "approval": 8814,
      "awwwww": 8815,
      "germ": 8816,
      "claire": 8817,
      "luke": 8818,
      "nicer": 8819,
      "salvador": 8820,
      "withdrawn": 8821,
      "preferred": 8822,
      "mentalhealthmatter": 8823,
      "snowball": 8824,
      "juice": 8825,
      "pitiful": 8826,
      "rotten": 8827,
      "##dream": 8828,
      "##vertently": 8829,
      "washed": 8830,
      "blocker": 8831,
      "satisfy": 8832,
      "reduces": 8833,
      "squish": 8834,
      "lifeless": 8835,
      "flattened": 8836,
      "sixth": 8837,
      "occurs": 8838,
      "cooked": 8839,
      "scient": 8840,
      "stabbing": 8841,
      "immensely": 8842,
      "protest": 8843,
      "pcp": 8844,
      "sans": 8845,
      "##carn": 8846,
      "encourages": 8847,
      "dmt": 8848,
      "##daily": 8849,
      "cameron": 8850,
      "downloads": 8851,
      "downloading": 8852,
      "critical": 8853,
      "criterion": 8854,
      "contemplated": 8855,
      "loopt": 8856,
      "coaching": 8857,
      "hunger": 8858,
      "cancelling": 8859,
      "mediate": 8860,
      "obliv": 8861,
      "restriction": 8862,
      "ditched": 8863,
      "foolish": 8864,
      "globe": 8865,
      "##writing": 8866,
      "shocking": 8867,
      "spoon": 8868,
      "rooted": 8869,
      "economy": 8870,
      "cracked": 8871,
      "invested": 8872,
      "resolved": 8873,
      "brutally": 8874,
      "confronted": 8875,
      "confirmation": 8876,
      "neglected": 8877,
      "battled": 8878,
      "banned": 8879,
      "gasp": 8880,
      "mcdona": 8881,
      "##uuuuuuuuuuuuuuuu": 8882,
      "##yroidism": 8883,
      "hmmm": 8884,
      "johnny": 8885,
      "vertically": 8886,
      "streaming": 8887,
      "contracted": 8888,
      "installing": 8889,
      "revolve": 8890,
      "dissapear": 8891,
      "vibrant": 8892,
      "##petent": 8893,
      "##mcfly": 8894,
      "whisper": 8895,
      "whiskey": 8896,
      "shrugged": 8897,
      "abdominal": 8898,
      "suitcase": 8899,
      "reborn": 8900,
      "reincarn": 8901,
      "unlovable": 8902,
      "intensity": 8903,
      "britney": 8904,
      "arrange": 8905,
      "declined": 8906,
      "remains": 8907,
      "translator": 8908,
      "audience": 8909,
      "steve": 8910,
      "widowed": 8911,
      "congrat": 8912,
      "hesitant": 8913,
      "chalk": 8914,
      "chalked": 8915,
      "poisoning": 8916,
      "unproductive": 8917,
      "additional": 8918,
      "scolding": 8919,
      "princi": 8920,
      "increasingly": 8921,
      "hypothetically": 8922,
      "honor": 8923,
      "neurotic": 8924,
      "africa": 8925,
      "cocktail": 8926,
      "broadcast": 8927,
      "assistance": 8928,
      "unconsciously": 8929,
      "doubting": 8930,
      "privileged": 8931,
      "authentic": 8932,
      "hallucinating": 8933,
      "elderly": 8934,
      "fisto": 8935,
      "ibupro": 8936,
      "jerk": 8937,
      "japan": 8938,
      "obese": 8939,
      "upper": 8940,
      "harassed": 8941,
      "sophomore": 8942,
      "rescue": 8943,
      "fragile": 8944,
      "manifest": 8945,
      "incomp": 8946,
      "incompetent": 8947,
      "adventurous": 8948,
      "travelling": 8949,
      "smoothly": 8950,
      "inflamm": 8951,
      "retirement": 8952,
      "determine": 8953,
      "determined": 8954,
      "unlikely": 8955,
      "bongani": 8956,
      "coding": 8957,
      "gathering": 8958,
      "geez": 8959,
      "linux": 8960,
      "pipe": 8961,
      "tingling": 8962,
      "tutor": 8963,
      "tackle": 8964,
      "telehealth": 8965,
      "lifted": 8966,
      "liquor": 8967,
      "shelter": 8968,
      "donniewahlberg": 8969,
      "department": 8970,
      "unknown": 8971,
      "spilling": 8972,
      "branch": 8973,
      "meditating": 8974,
      "paradox": 8975,
      "decrease": 8976,
      "laziness": 8977,
      "cardiologist": 8978,
      "username": 8979,
      "equally": 8980,
      "gemma": 8981,
      "mortgage": 8982,
      "oxygen": 8983,
      "snee": 8984,
      "tantrum": 8985,
      "xoxo": 8986,
      "thirty": 8987,
      "stagnant": 8988,
      "deprived": 8989,
      "dehydration": 8990,
      "excellent": 8991,
      "convenient": 8992,
      "unspoken": 8993,
      "agonising": 8994,
      "spectrum": 8995,
      "troubled": 8996,
      "coupled": 8997,
      "psychotherapist": 8998,
      "programming": 8999,
      "tremendously": 9000,
      "devalued": 9001,
      "malnourished": 9002,
      "exploded": 9003,
      "volunteer": 9004,
      "vibrating": 9005,
      "subconsciously": 9006,
      "sacrifice": 9007,
      "bodily": 9008,
      "delta": 9009,
      "wealthy": 9010,
      "yucky": 9011,
      "hawaii": 9012,
      "mexico": 9013,
      "##charged": 9014,
      "abroad": 9015,
      "abruptly": 9016,
      "amateur": 9017,
      "recession": 9018,
      "conserv": 9019,
      "mundane": 9020,
      "savior": 9021,
      "relatable": 9022,
      "contradict": 9023,
      "recluse": 9024,
      "morphine": 9025,
      "trivial": 9026,
      "swallowing": 9027,
      "settled": 9028,
      "indoors": 9029,
      "indirectly": 9030,
      "sunshine": 9031,
      "biologically": 9032,
      "wrestling": 9033,
      "unworthy": 9034,
      "lymphocyte": 9035,
      "apprenticeship": 9036,
      "0lbs": 9037,
      "categ": 9038,
      "furniture": 9039,
      "hilarious": 9040,
      "vyvanse": 9041,
      "wrapped": 9042,
      "yadda": 9043,
      "thailand": 9044,
      "anchor": 9045,
      "inadvertently": 9046,
      "warehouse": 9047,
      "shamble": 9048,
      "alchohol": 9049,
      "western": 9050,
      "depakote": 9051,
      "chosen": 9052,
      "unreasonable": 9053,
      "longcovid": 9054,
      "postnatal": 9055,
      "excruciating": 9056,
      "regretted": 9057,
      "antisocial": 9058,
      "dynamic": 9059,
      "mentalhealthmatters": 9060,
      "mcdonald": 9061,
      "ibuprofen": 9062,
      "inflammation": 9063,
      "0g": 9064,
      "0min": 9065,
      "0yr": 9066,
      "0pm": 9067,
      "9m": 9068,
      "aly": 9069,
      "ail": 9070,
      "aint": 9071,
      "ahhhh": 9072,
      "ahaha": 9073,
      "asexual": 9074,
      "bn": 9075,
      "bg": 9076,
[...]
